node {
  name: "global_step/Initializer/zeros"
  op: "Const"
  attr {
    key: "_class"
    value {
      list {
        s: "loc:@global_step"
      }
    }
  }
  attr {
    key: "_output_shapes"
    value {
      list {
        shape {
        }
      }
    }
  }
  attr {
    key: "dtype"
    value {
      type: DT_INT64
    }
  }
  attr {
    key: "value"
    value {
      tensor {
        dtype: DT_INT64
        tensor_shape {
        }
        int64_val: 0
      }
    }
  }
}
node {
  name: "global_step"
  op: "VariableV2"
  attr {
    key: "_class"
    value {
      list {
        s: "loc:@global_step"
      }
    }
  }
  attr {
    key: "_output_shapes"
    value {
      list {
        shape {
        }
      }
    }
  }
  attr {
    key: "container"
    value {
      s: ""
    }
  }
  attr {
    key: "dtype"
    value {
      type: DT_INT64
    }
  }
  attr {
    key: "shape"
    value {
      shape {
      }
    }
  }
  attr {
    key: "shared_name"
    value {
      s: ""
    }
  }
}
node {
  name: "global_step/Assign"
  op: "Assign"
  input: "global_step"
  input: "global_step/Initializer/zeros"
  attr {
    key: "T"
    value {
      type: DT_INT64
    }
  }
  attr {
    key: "_class"
    value {
      list {
        s: "loc:@global_step"
      }
    }
  }
  attr {
    key: "_output_shapes"
    value {
      list {
        shape {
        }
      }
    }
  }
  attr {
    key: "use_locking"
    value {
      b: true
    }
  }
  attr {
    key: "validate_shape"
    value {
      b: true
    }
  }
}
node {
  name: "global_step/read"
  op: "Identity"
  input: "global_step"
  attr {
    key: "T"
    value {
      type: DT_INT64
    }
  }
  attr {
    key: "_class"
    value {
      list {
        s: "loc:@global_step"
      }
    }
  }
  attr {
    key: "_output_shapes"
    value {
      list {
        shape {
        }
      }
    }
  }
}
node {
  name: "tensors/normalize_tensors/component_0"
  op: "Const"
  attr {
    key: "_output_shapes"
    value {
      list {
        shape {
          dim {
            size: 800
          }
          dim {
            size: 24
          }
          dim {
            size: 1
          }
        }
      }
    }
  }
  attr {
    key: "dtype"
    value {
      type: DT_FLOAT
    }
  }
  attr {
    key: "value"
    value {
      tensor {
        dtype: DT_FLOAT
        tensor_shape {
          dim {
            size: 800
          }
          dim {
            size: 24
          }
          dim {
            size: 1
          }
        }
        tensor_content: "\247\300\000>\224DX\277\010\322\326=\366k\223\2743\001\264>4\376`?l\364\025?\222:t?\216\2004?\006\264\212?<\224\255>xX:\277\023\377\240\277\271\226\232\277\300\202\203\277\306\207z\277*\362\006\277\2763^?l\252\212=f\201,?\036%\206\276\200IB\277F\225#\277)_\'\277\233\3222>\310\n\236>jm\245>\345\307\021?h\361\226?\265\341\227?\331\347\205?\250\331\247?\361\035\264?\017\305N?\200\"\211>\355\"\263?\320k\202?T\252\274>\334\330g>\200W\373<\256_*>bE@?\310\262\230?\310\371B?\322v\205?$\363\264>g\030\263>\372\351\021>\343\337\036\276\212\313 \277:\304\276>P\335\215>>\320\210=\212\207\264\277~\341\014\277_R\217\276\226>/\277n(\361\276\355&\210\277l\213V\277\336c\302\277B\324\302\277\202O:\277u\237\205\277\n\376\221\276>\025\275>\365\260\266?\234\252N?a\002\316\276\010\321\327\275`\250W\273\333v\200>\177c`?\305\205\232?tT\273>\273\333\255\277H\006d\277\250V\003\277\210K\246\277n\220a\277n\023?\276\266\241\253>`\t\343?\261n\020@\213}%@\327\321\014@\351tn?\276K\267>(\237\336\275\271\030\214\275N\350\341=\254\260x>*\356I\276W\307\006\277\r\336y\277r\347\315\276O\021\332>jA\t?\347\272q?z\n\372?t\0130@\rP\006@\267\211\302?\273\222\336?J\003\345?\272a\"?\307\215\235>\244\263\210?a%4?\205Ha>&\242*\276\027\275\306\277\340\272\223\277v\327\247\277\245i\241\277\331=\037\3005\036$\300\022\275Z\300X\365\022\300\324\207\022\3007\275V\2779\3724\277\336\2147\277X\361\204\2770\303\276\277)\327\004\300\24708\300\"{\253\2778=\240\277\333\250\323\277\312\210v\277:_}\277\265\235x\277<\271\236\276\334B\007\277\2346d>~d\256\276X\375u\277\220\362\210\277\376r\200\277 \212%\277\241#m\277\360\315\022\2754\347\213;\3073\300\274va%?\"\317\311>gI\031?\030Uw=\357\244\217>V\227\235?\304\027\366>P\326\275\274&h\351=\222r\351>\212H\200?\\<\267?\315\201!?J#\225?\316\202\315?\263gd?\244\0231>o\360\201\276&4\221?\210\303\323>\\\2751?\214\021a>x\325=?\204\322\341\275|\263\020\276h.&?<\365\225=1\336$\277\304\276\324\276r\371\036\276t@\326\276\370\275\031\275os\017?E\002-?:hi>\340\227U?h{\353\275.r\201>Y\340V\276\3409\305\277\020a\036\277\271)\207\2766\002)\276Ym\237\275\n\273\300\2760\316\035=\200c\342>_\302s? \371\263?\252o!@S\344\240?\277N\262>_\016k?\334\217\r?\342\270O?8\305\250\275+\326\204\277<E\007\300A\215\304\277v\240\366\2776\003_\277ny\277\276T\000\000>\177\371\246\276x>\270\276VF\304\277~l\307\277\232\240g\277\033W\232\277Ur\205\277\3201|=Y\034\215>\377NU\277\200\016\341<\214- \277`\023\305\276`A\220>\220\'\374>dBT?\235{K?\000n\023\272\0225\225\277SB\326\277\300\006\010\276\\5\n\277\352\200\312\277@4\311\277V\341:\277\000I5;\353f\365>\364K\221=+\363F?P\217\024=9\006\235\275\307]a>g^\241?\365\214\004?\033I ?xO!?\316l\000?\374)\226=\006d\216=Z[\005\277\335\244\034\277\000\274@:r\370:>\204z\337\2760p\240<\216\321\302??\344\256?\320\255\235?r:\221?\304\372\366?\210e3@3\224\251?_\253U?\254\217m?:,\260?\211+\n?\246\034W\277\364\321\016\276\025\213\332\276\'n\025\276\000\215\337>6\334\022>\000\272\201\271\235\226\233>\307C\017>\351\275[\277\352\250\357\277XE\017\300\306~\367\277\254\343\315\277X\312\327\277\200$\007\300o\217\355\277\001;\031\300,\255\323\277>\202a\277\000D\240\277%\021\274\277.\036\213\277.\234\327\276\306\224q?\3711\276?G\020\300?\354\266\316?7A\026@z\276F?\323o\227?\rU\304?\344\273\271?\n\347\300?\350_@@\301\256P@\230z\352?a\r\310?0|\260?\020\364\225>\020\305\236?\364>\000?\000\t\256<\252 $>\334\202\377\276Z\323z\276\362,>\276\250\305\005\275~\323\241?\201#\253?\356\353\261?\253(\236?\347\227\310>H(\355\275\005\016\203=/@\302\276:d\202\277\272\207-\277@\251\345>\226\024i>\210\225s>\260V\204?\220\237\230?\204#\">\221\036Z\2761\337\354=\367I\333=\253UL?\221\211\302?m}\202?\262\312\310?\316\240\326?\330[@>\272n\230?s\'\010@\\\374\233?I{\261?\035G,?T\375\255>A\261R?\354\013\307=hY\245\276$ \004>\271\214\035\277\362\371h\277H0\214\277\002Z\244\276b\306Z\277}\204\227\276be\251>\253\313A?4po?\212\001\013?V\242!>\2463\376>\257\353\370\276I\343\303<\220-9?(\257\374=\004I\234\277i\261\026\277x\031\305\277`l\300\277\260\350\327\277\262\r\236\277\026\277*\277x\243\205=\245\275\236?\316\230\343>\270S$?-N\031?\200\007\215?@\217\005<\270-\301=\236\342.\276\254\342<\277\344K\243>h*0>\003\260\207=\250\234\203=\376\355\310?\310\206\333?9t\343?\207\005\345?\014\225\321?\322n\250?\227\004\250?D\267}?\320\367\215>k_\213>A\272d\277tV\202>\3129\230\275M?\217\276oY\370>\245K&?\022H\257?6\321\344?x\207\363\275\025\263T\277r/\031\277\240\254\265\276\344\323\236\277D|\341\277I\243\214?\2533\327??\003\204?q\311\355>\307\"X?\357\343\356>7\242\275\276\023W8\276^HR\277\336{\033\277\232\245\240\277\202\213:\277\266\364\300\277\270\020]>\240Zb\277~\244m?o\271\206? z\032?L\324\234?\345)\250?\232\200$?\367\327\020?}\177\330>\303\261\006>z\215\250\276 \375)\275c\253\006\277/Mm\276\361\026\036\277\213\374\030\277\234\273\304=p\363\236>\002\357\254\275~\207\276\276nT\030?\245\212=?\326IS?9\001-?\250\304\n\277\\,\235=2\207n?5\027\203?^<\302?R\035\021?\354\206D?\374H\361>\363\235\020?\r\334\216?\033S-\276\242 _\277\320\037\202\277\256\325\254\277q\030\244\277\036s\220\277\\to\277u\313\235\277K`\316\277\342z\020\277\366T\325\2766\342&\277\370He\276\264\265\277\276R\177O\277\214\232\304\276\020\320\'\277 \373\241\274\216\301\210>\261\225!?\351#\'?\226C\267?\360\007\342?E\2472?\020\203\003@\335\355\213?\032\356P?\207\214\212>\347@\342>\354\200\351\276\316\250c\277B\303#\277`\242_\277\000.\253\277\252\372\364\277\324T\225\277\346\327\326\276\2249&\276\021\nq\277\272/)\276\257|\373>k\233$?\360\237\006=\270\254r\274\247\024\270\275\027\013\236\276\0243\217>\253\203\217\276S\315F\276\354R\317?\017CT?\316)\201>\341\\\017?\360\000U?\032X\024>\360\r(<\010\304\313>\221!\354>\354D\204\275(&\236>Gq\240>\216\221\215\277vI+\277\240\311\356>vaX\277O\210\353\276\243\2671\277 \216\033>6Z\273>8\360B?\224\333\235?\246\004\242?\031I\321>\000qV?li\272?\320Al?\200\301\240\274\034\306F\275K\235\006?\350\225\255\275f:Z\276\304DN\277\344\245\352\277P\263\264\277\311\277\255\277u\r\277\276\242\327\320\275\0165\246\276w\345\"\277\344\000r\276:\377J\277\340\237\336\277EA[\277\345\373\272\276\213o\271\277\212@\273\277}~\005\277\267\361\375\276x0+\277RJM\277<\"y>tl\205\275\266\272\236\276\3708\251>\272\257\023\2762\353\274\276\226\031\215\2770G\262\277\006\031\236\277\254p\272\277\317d\013\277R\236E\277\252\277\220\277f2X\277\014\t\004?<\270\201\276y\250^\276\0355\204?\n\350L?q\376%?\003\276B\276.\236p=\022\301\n\277\274\336\355=,\241\315\276\000;\265;I\003S\277\037\255\205\277|\"\256\277\245]\272\277\301\217\373\276z\010*\277`D\211\277`mP>\226d\304>\375\323\006?\300?\216=-}\230?\207\344T?\220\026\347\276\210G4\276\247\026F?M7\374?}\024\031@q\010\242\277zCa\277 \263\232>\326\324\264>\324G!\277\216\375\264> \377\246>\246J\216\276\311\352i\277#_m\277\226\323\253\277-\320?\277R\331\214\276\304\n\002=q\214@?\240\365z=\266r\244>f\221c?\226\302\223?hX\027\276\214wr?hX\315?\324\316\315>X*=?u\216a?\224R\367?\237\360\017@Z\216\"@^\\\263?QW\236?\366]1?\302\335\357>(i\256?S\230\000?$\324~?\310~\030?K\367\t?\262\033\362=]SW=\273\032\217\277H\031\301=\263]0\277\377\230\036?C\211\247?\210\357b?6\307\220>,\341\230?\330\230$>L\360\364?\022\245\305?\020,\341?\266:d?*\017\247?\243\305\312?\235\354d? \252\004\276\032\000\370>\020\006\363>\250\r\221\276\022N\035>\242\330\025?\263\017\210>ZE\222\275\331z\213?\240\tU=\253\2630?@\242\032=[\3328\277\222\213]\277\264\274\n\277\354\217\201\276\025\032\214\276 \357\n?\262$|?\260z\333?\365\\\371?\270\n\366?\210*\254?\237x\307?0\247{?t\212o?T{$?\220\275\321\275\354\020\316\274\206\341\271>\26252?\230\303q?\253G/?\260Fl?\241\220*?\304\236\310?t\235(?\326\206\233?\364\034\230?\230\014$\276dv\301\274*\\\364\277\255@\204\277iL\243\277\n\202\360\276\351\266\370\276\350\214\005\277qm\024\277\376I\013\276\2547\034?x\010\257?\241\267\006@r;\010@\306T @!\257\020@\351\311\001@n\222:?*vT?\030\337$=5o7?\024\203|?l6z?\214\177P?\220\275\241\275[0\304>\324\220\207>D\007\262\276\246\371e\277\273\001\322\277\036X\313\277\231\240\306\277Q9\210\2775\'\272\277\220\r\347\277h\342\361\277,{\276\277(\032\335\277\227\214\264\277r\375\263\277\333y\205\277\252\232Z\277\036\212s\277\034\211v>\\\031F>gq\333=\255{\310=.QT>\361r\231=|\367\233>\302\203\n?\n\365\025\276\014\021\204\277\"\272\316\277\n\265\256\277 \231\315\277\016\334s\277/\314g\277n\233\306\2771\'\277\277.\361\321\276!\232.>\217\271j\276U\363e\277\200\022\247\277Of\"\277\2307\241\275zw\321\276\2364\361\275A\225\210\276-\205Y\277\0267c\277\370\200\030\276\354\305\273\276\354\'\240\276\354\352\273>\367\250\016?u\323\205?\271\307+?\234\364\364=B)\226?\310\267\"?\324\244K?\264\251<?\001jM?\2373`?i\260T?Y\013d?.?\201?\370\n\250=\235X$>\310\000\231\275F0\031=\177n\030\276\352\207\241\276r\033\270\2755|\243=O\031\376>#\206\262\277ph\246\276i`\373>\024\252\257=\261Z\t=\221\\\273\276\027\257\247\276v\0106>\211\216\220\2764]:\277\037\200\320\277+\010\006\277+D\353\276\\\200\262\276~\350i\276\333\375\225==^$\277\030z6\275\227e9?\353u\250\276\342P_\276\333\255\246\276\356{\270\277\254\323\220\277\205\017\000?\300\233\036\275#\354\326>\273\037D?R\362\254>\344\337\305=G\363\017>e\257\222\277\320S\324\275\263u\332>\320w\234?\233\261\213?\300R\264?\257\270\350?>\233\265?\022$\022?\223\311\"\277\027\341\302\276q\201\245\277\364k\254\277\230\272m\276\220\236\252\276\373\356\027\277\200F\234<\312w\265\275\334SY?P\021\004>\2472\t\277\360AL\277x\322\216\275\014\3756\276\255\216\017>\340\362U?X\352K>\262\033\027\277!\0269\277\014\263B\277,X\223\277\332+\005\277(\326\230\276,j\243\277\230v\265\2760-\355\276\3401{=\033t|?\223j ?\002\323\207>:a\364\276%\201\235?\006_\312?\357\024\321?0\343\273\275\237?7\277\364\352\271\277\310}\303\277\204\253\205\277\244\274\243\277\361-\024\277iz\253\2773v\241\277\335\036\254\277N\343r\277>]e\277\304\235H\277\2203\006\276xR-\276PE\307>\336\342\200>\274`i>]\013\244\277h\243\320\277q\272\240\277\007\030\026\277\222v.\276D\370\r\277\260\336\266\274M\304d?\"w7?\310(\222=\227\365\370>@\2278\274\237\222\257\277\000\323\230\274x\277\024?a8\035?\rOX?L\254\264>\372v\376=j\\\022? \256\342>\240\257\320\274\312Y\372\274;\203\323\276m\227\025?Y\226\275>\223\376\266?\034\n\203\277\tq^\277\230\264\"\2776\0144>\003\010#?\25021?\333\033\273>4X\364\276\207\356+\277\014\232l\277\320\306r\275#\235\017?>K5?r\212\232?\222\033T?6\326\340\276\344V#?:\255\217?\210\373\262?*\255\317?IU\334?t\330\261?j\370\206?0\354o?\246#\035?\212\372\317>\352\367j>\020\036\304\276uG}\277\300\313\232=\020\243\342\2766\202%\277\361\343\204\277t\2168\277\200n\226\277\234\024,\276\027\301\245\276\367\332K\277O@\242\276\000\"S\277\366D\005\277D\023m\277D\224N\277\304\262N\277\000\032\234\272xo\207\276\247\034\221\277\000\362\201\277k\246\257?,\243\260>P\204\022\274M|\207\276\360N\334\276\362\036z\276^\233\302\276\2124\234\276juY\277X\275\222\2755\302\027\277w<\035\276\0016K\276J2\024\277\313\247\320\277x\340\351\276\225v!\277\313\302W\277\214?r\277\216y\323\277o({\277\346\205\'\277\034\0334\277\325\355\272\276\301B\237>\323&\227?J\273\243?\004vf?@5\200?\356\260\225?x\252B?P\356\023=\240\225\201\276\376\036H>\313\3562?\310Kb?P\340\021=9\3712\275%\\\032\277d\300h\277>\204;\277\320\263&\275\016~+\276`\336\311\273-\0003?\240\025\223>p\213[?\022\337\'\277;r\234\2770MJ\277\2662{\277\021\301n\277\014\200t\277*\241r\277\024\231\"\277\322\014\273\2760\027,\277\017\327s\277\364\226\265\277\357S\246\277\276-\351\277\300v}\276\243\270\237\277\202\245\266\277!\020\237\277\377{\224\277\330\235\021\277\260\203\n=-\365G?2\335\010\277\216\245\\>\242z\014?\342\n\231>\200t\r?~2[?\311m\247?]\360\277?c\343z?\325\355\225?\374X\206>$ \024?\216\233\257?\252\204`?\306\235\204>6\202\344\275\025\305\025\277\005`\031\277,yM\277C=\202\2778\265\341\277\212\2455\277)r\023\277\020\363\264=\343\377\304\276\260\332\231\276\265\262\366\276Z3\235\277\\\307\305\2765\344\242>\2308\213=`\337\033\277 \315\306\277\234u\315\277`\232\220\277\215y\355\276:\303\340\277v\370\244\276)\253\323>c\200\213?\225\021V?\317\364\000?*\330\"?,\305\210\276up\255\276>\260\264\276\256\262\000>\277\3632\277g1\035\277\310\315\346\276\034\206\274\276O\217\305\277\270\n\205\277\3006\226\277}\362\311\277D#S\277\243Y\213\276\261P\266\277w4\200\277\006\226\324\277\360L\364\276\252\350}\277l\024\023\277\343H^?\324D\345=\377\234\234\276\241\322\266\276\225\224<\277\334\324\212\275>\216?\276%I9\277B\235?\277r\344\271\276t\247[?6[\352>o\346\273>@\t\357<^6\023\275\366$\253>j\371/?n\330\013?\376\005C?\277\333\201?\240H\337=\256q >\362\240\206\275|\357\370\275<\277\222?:\334\227?\321\337\205?\021?\264?\316W\233?(\230\010@\376s\204?=\343\232?\347x\013?\210\177\230?k\377\014?v->>\333;\260>R\242\216>\252\347#\276\220Q,>\371\363_>I7H?\032@\263?MM\346?\\\"\035@\222O\220?\274,j>\342<H\276\3643S>hv\315?C\272\037@\030\257\377? \322\356?Q<\000@\200/\307?\226l\261?\216\277\253?\\\341\250?Z\006\274?F@\243?\010X\343>)\363\004?\357\025\255\276>\213\303\276\354g\246\276e7,\277*sl\277x\023\352\275Rs\374=\034\333\206?{\331\271?\320\200N=\312\261\324>h\016.?k\225w\277\314\327T\277`\233\246\277t\302\306\277J\330!\277*\326\255\276\202\376/\277\234;\230>A\264\341\276v\027n\277\246\275\305\277\330\000\366\277\2318\324\277\275\235\346\277\250\306g\277\300\235\223\277\300\332\242\275\177g4?\201g\301?\305\304r?\232a\211>\025\250\037?\346\355\200?\346\274\241?\272\036\355>\211\323\365>\002c\\?\3642\334?cc\307?\2343\221?xc\\>\037\230~\277;\'i\2775\236\347\276\016\374\257\277\246<\002\277\354\361z>\311\243\007?\373\274-\277\342u+\277B5\014\2776o\031?J1T?\370a\t?:zu>\362\336\213?s\n\217?@\332\006\275\036\3525\276\377x\005\277\310I\\\276n\235\272\276/\223\315\276\224\261\000?\260\306\230?\0179\231?b\372\321>fwI?\347\242\031\300\220\261\320\277\242\275\231\277\360\334T\277\364\253H\276\000\302\014\277\236\035\036\276\222-\001?GW>?\\\372U>\177\371L>\352D\304\2760\370\276<\000\220\377>\234\260\267\275\320\246(\276x&5\276\361\2054?\000h\22096\230\230\276\325\343\035\277\220\274\014>T\330\302>\030i\014?9\222{?\216\200F?\024\203\260>Rp\344\276\200\321\220\273\256\314(>\364Y\022\277Q\014f\277O\323\234\277\355\335\336\276\017\320L>\220XS\277\3436X\277o\230\215\277\304\315z\277\240\035W\277\360\204\031>\313q\231\276\200%(\277W\033\026\277\006\305v\277vSj\277@Aj\275\032\004\036\275\233\345\200?\3209\254?T\307&?\331\214\264?\354\000\034?\016\316$?\264\035\311?\356\237\243?\353\001\232?0\322\265?<\271t> y\342>\336\215\326\275\306\"\005>r/\304\276\346\243]>\356\346\355\276\3120\037\276\377\262\266\275T\354\202\275\270\343}?\376\\\r>9p\313?$Z\225?(ka\277m\264\234\277\254\'=\276\310\377J\276\260\025\244\277\225~\336\277\034\335\264\277\273\2261\277Kp-\277\276\247\342\276p\331\206<\346m\007>\200\035\357\276\240\001\327=4\205\350>#\007-?\276\245\277>\2610\215?`\262i?G\341V?\232\266\244?\264\266\033\277O\200\022\277\314\204\031\277\026/\327\275\304\240,\277@7\007\277\375\302E\277\016q\267\276\236\375\360=,\370d\276\026\366\236>2\177\362>L\301A?\033?\252?ic\367?\'L\351?+ \r@\357^\013@\333V\322?N\270\317?6\2211@\273\355\036@I\220\023@\346\310\365?\277*B?\270\\\227\276\037\371\220\277\n\303\226?0\257\255?\024\353h>=\232\007?vN\006?\260\377Z?\362\361g>\360Q\000\276{\204\035\276\242\335\215\276p\321\317\275\010C\337\274N{\316=\330\224o\276[k`\277J\226\201\277\243R\213\277\\\250\005>\370\357]=?Dt>\273\001\235>\010f\262\275\366\240U\277\341\221\205\277\257\313\227\276~\353^\277*k\226\276\032\017\241\275j\026\321\275t\002\255\276\007\270U\276\263fW>s\330\304>\222\272K?\242\226+?C\340\'?\300[\323<K\275\013?Y\031=?\350\202.>\020@6<s\321o>I%\213\276|\332\214\277\266\354\302\276\207\007\362\276\304\344\370=\252<\370>!\213\353\273\222\024\264\274#\2438?\244\343r\276\274\223t\275\374\345 =\261\340p?\356;\243?U\212G?\0003\255=\224bo\276i:\254>\357<W>$\357\267\276D\345\226\277\010\265\271\277\203=\237\277D\037z\277\374\251\214\277\016\035\274\277\225cj\277\274\313\016\300\232\352\r\300\302R\337\277T,\000?\307(q>\210\313~>@\177\211<\211\235\024>\177\375*\277\212\277s\277D\255J\276\364\305\220<\252A\377<lq\310\276\343\303\026>\"\376b\276\222fu>\220YT<\315\315\000\277q\233\375\276\206\'O?\020\0302>2n\341>C\372F\277\246P`\277\277\321C\277\231\331\305\277&\243\321\276\346\255%>\30035\274NNG?\266\347z?.\3167?:\251\215?\340y\265=f\256H?u\037\210?\3041\332>\366\321V\276\364\261(\277\256\300\006\277\356\256*\277L\301\231\277\233\203\230\277\036}\377\276\336\202~\277\320\3162=\033\033\020?d\327\033?\272\346y>i\263\013?.g\001\277\350\016\300=\204\326\333\276\372\203\246\276J\031\201\277\261\300\372\277\240\340\216\277\\\261\375\277\347\370\341\277=5\255\277F\306\017\300\271J\262\277\232\267\347\277`\340?=[\224#?\\-w\276\260\253!\277S\203\216\276\r\032-?\002{\353>\\-m\275\tp\267\276\351n\232\277oB\232\277\271\344C\276(\312\235\274\010\001A\275\253\\\222\277\262\3369\277h\'M>\252\031q?\226\'\007?\010\322\214>@\3461\277\220\376\307\277G#\314\277.\027\224\277\232G\243\277\210\231\215\277\270\267\221\277\201\372\004?(jd?ai5?t\261\202?\266\337v?$w#?ZD\014?\253\276\233?\275rd<.3\021>\236\3612?zA5?\036\205\221?\353\220\235?\346\304\302?\301a\334>U>C?\\\016\207?.\272\266?|\016\210?\212*\345>\244PQ?\367\254\267?.\336\005@yS\342?1\207\356?T\265\264?\363\214\255?\223\316\263?\247a\310?\027\374\241?|]\236?\245#\261>PH\245>\377\274\002?\250\376\027?.r\225\276\202\211\310\275n\301\250\276\334^\317\276P\270\200\275lr\n>\266m\036\277\354M\274\277d\272\006\300;\330e\27784\014\277\367\363\220\277\225Y\222\277\274z9\276\3278\366>\034\261\350\276\316\211\233\276\306\337\317\276N\250\251\277\256@\244\277\304\0137?\221u\232?L\'\252?@;\201\276B5\242\277\257\304\313\277\357\277\246\277;.\255\276\250\3542\277\340\226\245=(g\333\275\247\334|\277\004\263\214\277~\226!?\300\213\315=\320{\261?Z\336\372?\016) @+\014=?k\243=?\367\332\311?\000\354\266?\017\314\271?\370\037\366?\334l\235\277\240P\006\276\024\214D\276\276OX?.\"\004@\231\340\357?v\243\025@\204\367\020@\246\010\274?\363\0221?\320\311\221?\310\237\022?`T2?\236J\306?$j\020?V\301\005?\260AH?\352nA\276|\301\361>\367\303\230\276-\0356\276\334\013\305>a\257~\276>.\223\275&T\000\275\247\303\272\276\264\357B\277\210\360\267=\005\005\324\276\227]y\276\250\346g\277!\300t\277\320\312l\277n\203\t\277\234.=\277\354\026\252\275\302q.?\002\005\214?\035c\360?B\363\337?\250G@@\2625/@(\306>@>2\315?@\233\236?\177B\261?\200\374\361>\014St?\327\035\277\277A\231z\277Va\017\277|\206/\277\334+!\276 \013\026?\340k\307>f\254\003\277\234\201\257>\002$\262=\226\305I\277\266\302\237\277D\322U\277\000\203\207\273\004Y\353\276\232>u\277V5_\27766\257\277Qd\022\277v?\224\277\220}\224=2j\314\276\324\032m\277\016\303\331\277\217\0021?\210\335\372=JL\022?\'\336\323>P?\304=T-N?L\213`?\376\324\214\277`\310\251\277\270o\033\277\234\3679\277dM\035\276\331,\005\277\342P\032?\234;\220?\376z\221?\230\213\372\275\303\031;?M\203<?\205\202v?fk\312?\004\006\351?\260w\266?\370;x>\227[\326\2778{\363\277@\236\221\277<LR>\230\205\203\276[\005r?k\022\222?K\336y?\005\356\007?\3347\277\275\302a\036>h\246\227=\200\335\252>RXt?\345\001f?\016L\310?\236n\332?\tu\211?\300\254\274?\243\202\203?\314\270\005? \254c\277\302g\022\277\036\007j\276\203D\031\277w/\334\2764\227\246\2776I\031\300\260\r\367\277b@\301\277$\036\035\277SO\366\276/ST\277\031n\336\276\244\3074\275\255\216\205\277\272c\307\277\263\026\376\276D\002\341\276_\323\003\277~\220\275>\232\t\373\276\316:\313\276\300\'\206\275\177\305N\277\242\351\021\277c;\037\277\231\232)\277>3\200\276>7\205\277:C\267\276@\203\t=\016\243\372>K:\207?\316\235.?\344\001\002>\252\224\035>_\323$?\314\247\333>\004\317\355>\351\2643>rg\235\275\277\330\252=&\021\314\275\302^\316==u\034\277\267\363!\277;s\301\276\210\0055?\334\276\336>\224\357\007?\313n^?\321z\312\276\2713\001\277\303\216O\277r\214\004\277\204\315s\277\031i\200\277\240C\336\2771\315\241\277\226}R\277\253\006\310>\300\376P>\322H\005\277,\000\224\276\266B\374\276@\342\342\275\033(x\276k\177\034>\024\032\353\275z%.\277\377\'\221\277\300Q\325\277\310\323\320\277\243\273\267\277\230\007\301\276@Qj>\200\333\221\274\027Pw>@\243\\<\315\221O\276&\244\235\276\271\374\"\277\274\216c\2770\212\343\276 I\002\274\022\211\206>\357Yb?-\261R?h\013s\275\313\232/\277\337\"E\277\340O\203\277\250\n\235\277\327\243\217\277#\222\'\277h\n\202\275k\357A?\366.\332\276c\246\373\277\322\315\213\277\242@\212\277b\033\260\277R\323\310\277\326\306+\277\017[D\277\225y\233\277/\275W\277\222\2763>:\306\017\277|\352\233\277J\030\323\277\014K\234\277\310-\010\277@\312\325<\354\020\003\277\323\263\023\277\210\n|\276\340\315\013\2762\247f\277\204\243\245\277\000\022\304>\202\343\023?\330\252,\276\013k\221\277\r\241\215\277\300)\265\275\303K\344\276\324\256\037>\311\200$>\213PW?\250\006H?\002w\327\2762\2422\277\317\233T\277k\323\'\277(\324\363\275\254\252\305\275\013\320\027\277;\'A\2774e\355\276R\027\177\277\331`\264\277{N\265\276\307\037\254\276OS\177\276\242<\353>\322\250\232>bFu\276\372\274\206>S~\275\276\306s\017\277We\034\277x7Y>\324\241\244=\265\"\314\2752t\225\277\001\353\262\277\010p\335\277s\026(\277\010\022\220?\022\261\222?\030\177\230?\366q\210?\016\213\322>\214\350\300>\006\376\220=\214\300\004>NR_?\3400*\274\006Z\257\276|i`\277\254\303\334\277\300\234\016\276\006w\272>\254b\363>B\351g\276\333\033\005>Fr\310\2765\347\033\277A\t\275\276\236\367\010?\342\017k?\247\331\255?\235p\325?\340[\322>\323\3166?\220^\200?h\216o>.o-?(>\014\276>\304M?b\013\214?r\t\251?M\026\375?\004G\031@E\250\232\276\360\360o=0\212\255\276\371*<\276\314\217\023\277\330\223%\276\032\350\026?9|\004?\036\255\034>EP\307>\375\014\272?r=\333>z\304u?/r\246?\224\315\217?\021\226\207?\274g\321>\222\217$?\304\245K\277\347\263S\277\320\335J?a\345\037?\2004\255>\264\240h?\267\307\234\276\034\3530\277\240\336P=\264\345\262\275yw\262\276RS\016?,\205\310?WT\343?\222\222\263?\341\374\347?\327\364\272?\004\254\265?\220aS?w\255=?\222w\264?\014\246\201?V\024\207?%\001\270?\351;\376>xh\205=\256\242\221\277\2058_\277T\225\022\2766\265\234\276\370\241\352\275\321\373\375\276\211\307\035\276%\357\205\277\002\004+\277X\343\365\276\244\"\017\277\375\245\375\276\334\376\014\277\260\017\021>\266\023\271>O\273\225?3\321\205\277\320\026\'>\344\024\027\277\030\252\211\277\230\316\233>\34471=\020\344\037\276\023*6??;\202>Y\312;?8\370k?=w\362>\320\014\214?\260\210\242=>5m\276tz\326\276\232~O\277\230\\C\277 \'\355\274\272\207\251\275\001\330\250>W\033/?\320\374\030?b\031\355>\355~\220>pR\352\274\032\317J>~+\250>v\302\024>\257\267\222>\277\214\000>I\304\"\277\336,\316\276\266\003#\277\324\277\312\276\276T\304\276\244\361\361\274\262\347{>\\\215\032?U\317&\277v4\332\275\353\330\016?\252\246\364>`\000\237>\247\352\242>\3329\327?\\\214\252?\032\274\320?\332f\360?g+\330?\345}\342?Bi\223?\003\231\312?\353\336a?\254\000\347=\'\032\010\277\250eX\276\334Na\277%<a\277d\275\315\277L\331M;\256\346\203>`\245/?Q\251#?\240\276@\275\226C4\277\032\3527\276\t\004\021\277ZC\023?z\256D>\270S\243\274\263X\374=\323}\324\275\024\341/?\311\247\000?$\327\224? \034\225?\037g\333?\362\023\261?\273\244\362?\324\014\t?\3523\026?\356\324\204?\304G\177?\375D\362=\230\r)?\205b,?\316\275\213?\227\031\255?\326\336\343>\256(\211>\330\252\272>\007\233\017?R(\212>\240\000/?\354\236.\276zA\264=3\243D\276\264\224\001\276\030\344\344\276\034\214I\276\210\200w\276\206e\034>\256\201F?a\342\317?~d\001?\250P\"?0vE?\034\324q>\274A\343\276\220|\215=.\004H?J\263\256\2760\330\376\274\010\326\r>\036\322o?\305\\\202?\204\314 ?\212]\264>\242\370\265>REu\277\261\245\216\277\014\000\243\277\220xB\277\022=w\277\003\313\330\276Z\354\213\276\000\300\242:\271\025L\277sS^\277 N\301\2772\342\364\276\000\345\320?\212\237\266?L\001\216?\361\312\207?bE\337?\\#\247?\264\225x\276\035+.\276\215cE?\2360\313>gP\335>\302\020\035\277\344\367\035?4\373\227\276\027\277\237>\264\301\202>\004\354\215?\332\3072?\236\337\367>TV\263>\316\303P?\346\271\264?\005\244\201?\232\204\356?~\005n?\332\216\237?\302\337\357?(TE?\222iF?\276(C?\260\235\213?\252\355\264>\324\210\346>vs=?j\223\200\277\340\232\224\277\2165\237\277\031l\276\277\311\t\257\277o\326\240\277eBc\277\230\266\346\275\352P\023\277\346\016 \276\036W\344\275\320\251\203\277KS\304\276`\367\006<\343\375D\277 \275c=\316v\336>\343\374W?\3165u?\367\305\210?\214\330\307?\261\350X?\376\3143?`\004R?\213\370[?\244\240O?\037\265\212>mr\302?\032\300\240?\204$\250>\034=\322>\256+m?\311\206t?1\215\324?Vhe?\030#\004>\000\350\013=\226\264o?v\203\230\276<1\236\276\334\177e=\264Xb?\306\273\021?\300\235\027?\030\030\224?\334\215\322?\210\223\217?\242f\345?\354\214\202?\212\223\200?V!\212?\202y0?\030\273\315=\316CG\276\321\0169?\242.\004?\211\274\360>\326\360;\276-\246\367=\337\3400>\370\020\361\276\341\020.\277@\245\"\276\212\243\223\277\016\224&\300Y\301B\300AE\311\277\037\351\346\277`\256\257\277\252\212\244\277\277;\007\300x\371/\300\264\335.\300\201^.\300\310\'\010\300\304\261\\\277ty\'\277Nd\226\277j\372\031\277k\267\204\277$\316\234\277\317zk\277?;\020\277gw\212\277\340\255\370<\310\334\207\276\226d\037>\355\'7\277V\371\372\276,\034D\277\000\321\007=\247\247\323\275\364\373\316\276#W6?\230\277\373?\327\201\271?\304\265=?\234\364\013\276\362\204S\277\312d\264\277\255@\262\277\314d\207\276\273\\y>\344\325O?@y\273<\366J\355>\220\371G>\2337^\277iBE\277\224\312\204\277\344\301\362\276\333\214*?\204\270\'?^\331>?\350\240\022>D\341\314>t\265\273\276])\027\277\302\226!\277\361?G?\374\217U?X\032\250?`\332\212?\213\370;? \334\262>=\273\002?\242\355\027>=]M>\200\003\037>\232y\022?*Ez>\217<\213\277\004\362`\276T\034}\277\352\014w\274\014\352\267\274lK\256>b\240\002\277\350\205V\276\201-v\277\373V\317\276c\271\205\277=\275J\277\271\003\242\277\2443\277\277_\035\346\277D\277\351\277X\253\233\277(\003\253\276r\032/\277\200\216\223>.\312.\277\266\010&\276\345\005\017\276P\360\026?|*\246\276\255\246\217\277\377\016\312\277\177\303\351\276P\220\276\276\376\300\006\276\261\213\202\2770\277\234\2752\273\250>:\354,>*r\253>\247\177\247?\200\265P\275\t\002O\276\276\270=?\020\233\234=^\332\002\276\246\212\021\277z\241\226>4S\265?\311\343\002@\022\033\210?b\343\276?\300\300\302<\302\350\251\276&Gh\277I\210\034\277\013\265\233\277`D\010=\346\244\376\276\310\001\342>\303\320X?p\375\004\276Z\374\325>\004D1\276I\"m\277\000\027\021\277\362\336\013\277\272*p\277F\027A\277@\004\254\277\253\r\330\277:\275\024\300N$:\300\223\003z\3001\277c\300\205\3508\300\306\325\315\277\360x\213\277\302\242\263\277-\236\034\277\305\257\270?\250\010(?\020\215\271\275\367\200.?\266\215\357>C\367\243\276)N5?\021=\271>e\363\235\276+\216\205\276\030\n\256\276\342|,?\310Dw>\006\266\362\2761X\263\276\340\007\364>\031Qu>\006\001\267>\227\275\204>\210\022\233?\224\023\207>\2667\003?\016`\244?]\322\r?[$F?Y;\"\277\270\371c\277\370~\222\277\323\300\277\277\366\370^\277\260\277\233\277\346\272\212\277Z\372\333\276a\320\213\276c\352I\276\332\347\302>\266\030\202>\212!/?\203\001A?\264@\030?h\354\240\2768\363!\277\260kO>o7C>\n\3276\276v\210\014?6\000c>\312))>\234Z\004@\256\254\226?\336\313\202?\240\205\255?\371\353\237?r\034\216\276d\\\210\276\262\323H\277)H\257\276\371\022\335\276r\247\204?v2\276>\020\000U\276o\376V\276\206\250\316\277\017V\346\277Jv\330\277\027\361=\277\326\202\357\277\000l\310\2726\006\353>V8\001?{4\251>\270+;>NI\242?\323\n\203?\351~\343>H\324\035?\001C\245>.\247D\277v\367C\277IG-\277\\\247\241\276\231\000)?\037O\210?\242\355\211?\2461\327?&k\023@\270X\205?\244o\370?_\313\025@\340$,=\240\257+?\342$\345>FzU\276\317\003\325\276\326\214\231>\232\037\026?\357o\256?\272CL?\256[\237?\374?\333?\010F\272?\362\240\202?\3303\321?\007o\321?\rP\324?\2225\030@h\200\001@\310w\017?\362\312`>\354\272\035\276\220\314\330\276\360\027\021\276\205\235\007\277\355\022o\2775\263\030?l\255o\276\324\370\360\276\275\035\216\277\001v5\277/\n@\277\224\022U>\002\3741?@1<\274&)\034>\322\246\034?E\342\327?\202\267\254?\221u\303?&\263\323?\343\223t?\010\033\216?\362\025\354>\300\271\241>\346W\016?\363\022M?;;Q?\371\\\312>\365:!?\212f\001?Xa\220>\224GE\276E\275S\277\027\254\322\276~ e>\031-\020\300\324\036\210\277\016\263\025\300F\366\003\300\243\252\'\300?\026\024\300qG\020\300\217\216\031\300L\316Y\277\nD\010\277^w\313\277\262\303\253\276\325\373\347\276\330\366]\277Wk-\277\200i\000\276\014\021[>\310%\301=\360L)\277\022\246\242\277=\017!\277X\242I\275\264\230\346\275\306c\215>tP\234=R\242\'>\275\322\260?\033\347 ?\352\340\211>\241;\211?\016 \252?\241\3627?\017+\007?\350\210\322=]>\205=yG\330>c\237\232?~\337\314?TBw?p\203i\275G\327\004?\376\210^?\2736\274?\244\367\017@\013\215\370?\022\310\026@\377K\025@\034\245\031@_k\"\276\272\206#>\372\220\250=$o\215\276\n\300\237=+\004\332\275\324F@>Q\235\211>\277\017\330\276\240\374X<`z\310\275\032\371\221\276&|0>U\235\327>4}\217\275\365\303|\275\246\0340?\307\016X?\232v\325>\026`\301\276`\274\311\274=h\336>\210\245\'?\377\362\004?e\237\274?\340\214l?\321A\222?Sh\006?m\327.?\000*\021;7\"\236>b\005\005?\374\210\244>PWY>\333\361\017?\016.\205?\270rm?\004|u\276\372\274\025?n\216D?X\301]\275x0\224\275\234\014\344\276rl\341>p\0352>\340\207>\2754Fn\277\007\331\301\276\277\037\004?q!\202?\376\312\264?\323)\237?p\223U>|\333\207>\206\220\251>\260\255P?\030\030F?\250\313/?0\215\354>\330$\222\275\020:9>P\367\022\277\212\262\361\276\240c7=\236\332c>16\276\276$\003\216\276#\366\016?Xc\347\275\t\034\r\276\337\003\240>]\t\224\2763\277\244\277\342$\361\277L\313\265\277\377\265\330\277eg\300\277P\334\023=\302;\303=\300\275\002?\315\260\222?\334\335;?\026c\323>\250\270\347>\2422@?\2643\214?c\377\223?g1\215?\300\377\240?\250\377\007@\305\334\007@Q#\212?\200\006|<<\366\242<\336\0360?Z\320\242?B\250x=\021\004\026\2772\007\210\277\307m>\277\260\233\343\277\340N\206\277\226)V\277|h\013\276\221\246;\275\236\214\264\276\014\343\273\275\341\271\350>B\270\201\277\023\0256\277f\320z\277\317\367T\277\300\303\'\277\343\350\002?\2268\n?\314u\036?\256\021\334>\010\274\226=\253T\023\277\000\346\224\277!jF?6\337\341?\344|\233?\237#\264?\032{\365>*\255\000@\272k#?,t\315>\234\362\352?\364\347\355?\236n\230?;\247;?\270nm?@\270\276=\330\t\177\276\245A\200\276\026\005G\277\tA?\277\366{G\277\274\202\222=\031\344\233\275\362h=>\246\256X?\"\370,?s\317\345>\204\027\220\276\365\336\347>\245\036\252>.k\215>\030\322\341<z\0255\276\034\233 =d3\'?\200\273\214<L\023\361=\232\037\022=1\026\313>~\277\222?\300N\006@\356\377\320?R6\226?KF\347?j\247\377?\303\342\211?\201\326\223?\204\355\312>\357\034\332>\037\027B\277\232J!\277\223\334\317>\237\014\020?\203E;?\3562q?&\313\236\276\227\314v\276<\023\213=\342\362\220=\352\346\334<34\035\2753\277\203\277\200\201\311<\374\331\200?\013\246\200?,\337z?L\003\323?\360\222K?@iN?\030]\216?%\034\210?\266L\255>\364\266\025?\214\\w>I-\204?\016N\314>\353\355\372\276o7|\276\304\360\310\2764\232\022=\336\360d?\303\036\222?\332m\254?\246\023\241?2\n\243?\366\3031?\006\222?>\265\237\225?\217\016c?\245jl?\010\025r>\244\006\r?TB\r?Pe\225>\272\372\232\276\000\232\277;\310\3327\275\207\265<?\262\301k?d\302\034?w.&?\233\350??lZ\036?\366\260c\277\307\004\220\277\210s\353\277l\321\237\277\245\010\235\277\200\332\347=.\245\332=^\213\024=\364\211l?x\303]?O\260Q?\343_\223?Q\245\314?\024\215\010?P\r?=\256\004%>\202\340\236>*\301\340\276>\250\276\275f\205\273?\237\212\335?\017\251l?\217\233\261>w\375\362>\365\270\212?\376\262\313>\352\033T?\333#\352>\220j:?\344\020\306?NB\257?)\334\266?\300\344\335=\336\234:>\ne\177>A<<?/\365\276?d\310\257?\336&\212?\211\'\201?\026\013\252>\213\377\275>\316\004\307> j:\277@\245\217\2779\211\233\277\310M\350\275\3674\220?\315\345f?o\033\272>\307y\237?0\006\340\275\345;\340>\363\214\221?Z\361\025?\234\022\267>\036\266h?h\322\250?\273#\253?\261\021\216?\200Wb?Y:-?\006?c?\177*\t?\200\365\020>B\373\244?\347uq?\010\016Q\277w\tG\277\001\024G\277\305\003B\277\331\240~\276\204hc>\005`\372=\2270\232\275\006\177\260>H^D\275[\027j\277\364\366M\277\030\304~\277\010&\300=\202\007\303>\020\204\031\276\361*\253>\220\177d?}U\253?\352\3030?!\326\025\277\036.U\276Km\332\276a\203\212\277\277%\202?<\343d?4`Z>\375tJ\276\206\031 \276\254\226\222\275o(;\277p\010H>\316\232@\276!\276\217=xw\364>3z\253\276sD\203?\367D\310?\261\300\341?\300\335\034@\225\255\t@\265!\251?`\326\261?\304nc?,\020\\\276\001\254\362\275\364\304\307\276|\300\033=d\241\266>\3355F?\374e\014>\366\205[>\220i#\276\252D?\276e\025\226\277\356l\315\277\204~\177\277\346\375i\277\3724\316\277\030Q\007\300\372\262\324\277\\\272\'\277Y\2528\277\311C\025\277\333\201\266\276<~\271\276\221\265\227\277\226A\026\277\256\326k\277\254Z\226\277\226\265\272\277*F&\277\0017\226?\334\225Q?+U\276>\302w\217\277\340\264\235<^\264\022?N\270\210?\240\377&?\310\360h?/L\207?\240\035\232?\374\315\254?\277\201\307?f>\241?\000 \033\274<eM\277\330\264\234\277\322\223\321\277\036\"\314\277k\216\332\277\200\205\366\273\016\264\207<\340=\373<H\254\346>\327\230\346\277\006\304\007\277\200\341M\273}(\310\275\215\344R\277\000d6\273\222.\t?\202\260\007\276\016i&\277\030~\326\276\316\203+?\004\246Y\276\036\364\n?U\376\373\276\306\315\314\276d\330\016\277\016\233]\277\352\017\227\276\213\350\220\276\364\250~\275\002O\023\276\372P\276\276\340\247\023\276f\333\313\276\255\362\206\273\253\217<\274\031\271\242>e\031\257\276h\'\351\276p\254\361\275\302\312G>\247\360\220?\316\021\223\277:\'C\277vx\237\277WQ\307\277\276\376\243\277\305\274\007\300\006\335\376\277\251\334V\277\352k\207\277`\366\275>\'\334x?\326\266\255?\362R\000@y\370\352?H\321\270>(\312D?J\242\201\277\327\224.\277\371\315\026\277\260j\227\277\376\263\366\276`\356\207\277\335\212G\277n\270\220\277\225k\016\277pB\014>.^\240\277\221\225\241\277\307\223\213\277\326L\260\276\310\025\245= \346b>\326\036\352>x\357\016?\251;\006?\250r\017?\226\031O?d\357\032?\262\216\230\276\224\235\241\277\241\255\202?M\207\210?\337\267\"?\0020*?R\304\266\276i6\246\276\234\342\007\277N53>[\371\004\277\206\307G\276\036\364\211>\3407|\274\276\301C\276A}\222\276\314\206\023\276\326\362~>\313\260@?\003\347C?\341\271\277?W\214\002@\026\t\227?\260\273\252?\273[\342?\210\027k?\370\214~\275p\277\265<\265\020\017?\270^S?|OS?SB\217?(\241\227?\247\257\252?\204\251z>`\306\277\275\363)|?t\251/?E;\025?\352Ew?\340\253\215?\036<\250?\243\205\235?x\250i\277I\376\313\277\2505\341\277\032C\346\277\274\037\216\277\374\036+\277`>\017\276\036\207m?\010\357\334\275h\270\342>rt\010>+\242z\276D\ts\276\327\222\227\277z\214\220\277\352\277D\277,N\"\277\014\t\351\276h_z\277h\362\013\300\304S\314\276]0\224>P\342\033>\253|t?\225\210\310>\216\030\013>Z\326\261?\"\030y?^}\361\276\006\303\211\275\372\021M\277\235\370n?\304V\336=\006D\204?\300nJ>\030\322V\275Fe\007?\336<B>\317jN\276\335-\224\276Z\313\367\276A\003L\2778\'\277\277\350NI\276\025\222\215\277\020\376\226\277\001\003r\277+aC\277!\316\027\277\346\224z\277y,+\277p)\237\276\000\306a:\025\321\311\276\255\374S\276l\266P@\330h@@\'\350]@\214\315t@R\362C@\331\215H@K\333\022@\"\327\366?\277\246\n@0Y\237?\235o\205?\257U\'?\277\317\275\276\322`\n\277\251,\274\277h\273\331\276.\211\335\2769Y\021\277`[\350<$\334\006\277\375\236\251>\351\307\273?\350\021\266?\366 \207?R\001\221\277|\213\202\2773\365\246\277\207\036\024\277\200F\240\276>9A\276\266\300t\276\001\t\355\2758e\306\276\202\2711>\322\244\021\277\350\361\265=\273\032\250\276\031\\\003?s\217\372>\240\201\335=t$\262\274L\010\233?\217\270\201?\251>Y?\261\004x?)\310E?2X2?\356B\350\276\216Wk\277\260q\364\275\234\254\250<\371&\272\2764\310x\277?\207\373\277v\241\362\277w\303\010\3002\345\253\277\256\342\216\277\310\2156\277\265\204K?\310\321\361>\340\334\017\276\333v!\277\335\323q\276p\027\315\274j\033-\277\265O\203\277\224oK>\350`m>\370l\224\275\307P>\277$\325Q\277]\316\003\277$\312\177\277#%!\277\211\206\230>\222\340u>\007)\017?\214W\005\277(\242\374>{x\031?p)O?BE\"?R\224\275?,\004\220?\037\277L?~!<?N\222T\277\276\026N\277\224!O\277\037\223_\277<\317V\277\345B+\277\207\343V\277q\351(\277\240\032\201>u\r\304\2764a\214\277\274\245\345\277\316\327\234\276\262m\013\277\254\033\374=\214CL?\307\331U?\003\263\362>\360\t\331=\210\343\213\276|\035\214>@\242B?(,\260=VNj\277\326gE\276\345\322\233\277\254\214\007>\252\241\030\277\034\243l\277\314\244S\277\014\371k\277n\237\225\276\t4\236\276D\032p\277\300\314l<2\354\260>\240\0164=\3649\263>\010=\252=\325\333\262\276\266\354\311\277t\340\001\277\202\363\361\276)2N\2760\264\204\274\236#\215<\370`W?:\273\374>\020]B\277\330\273!\277\222\341\267\276\252P`\276\325\351\322>)\254O?$iM?\323-F?\203S\035?y\272\314\277\2705\265=.IC?h=\302?\024\245\026?hw?\277_X\205\277\014L+\277\231F\020?\2453~?\371\235W?l\211\272?\205\023\254?P\017\320?D\n\257?\344\224M?\202\231q?\264\010\002@@\320\263?\304\233\301?\365\032K?\340\341\247\274H\212\220\275\017q\220=\330\007\027?Xb\005=\22145?\004I\244?\345\030%?\316\024\272?\377g\352?p>F?YA\202?\206it?\330\314~\276\262\237\010?fe\244>~2\252\277\327\025\267\277\210\367V\276 \243\000\277\303\351T\276\177\016\241\276ma\211>\250\177g?M\305\252?\264;J?\350W1\275\035=\322?\034\014\335?\322\235\000@r\223\255?Q<\234?\306d\341?||\001@b\210\246?\357D\024?\301\225\210>Y\264\235>_1\236\276\250o\006?2Q\327>\254\231\262>\000\275f>-\2751\276y\264x>\335)v>8bp>J\245\245\276^K\242\277\313\312/\277>\243\032\276\255>\225>\325\032\003>\256\354\017\275i\363k>a\243\203>l\365\237\277\261\246\224\277\200A\221\277,\216\226\277G\355\210\276x\316\037\275\314\252\254\276M8u\277\224\213Z>\241\353}>\312 \204?fI\204?v%f?\0009\241<\3139\004?V\033\333>\304x\t?\034\306\216?\340K\341<Y\265\264\276\300\256(\277\344\265-\277Clr\277\330\351-\275\227%Z\277\311\0144\277`\304N\277\024R\302\277\224\270\363\277\373\324F\2778`h\277\300K#\276\343\354\022?p\327T?T\254,>h[\261>\212N\026\277>y\017\277\2648$\277\013s\246\277\242\033\200\277\372\033\315\276\374\244\317\275\234\3115\277\245\211\354\2765\376\275\277\247\217\214\277{d\205\276\224]]\277\231\003\253\276\302\3441\277\270\245\224=:\030A\277\2347>\277;\302M\276L\022\206\276\240J\215=\200[\342\276\3669\217\2770\267\305=\013b\203?\307m\300?\272\247\214?\032Y5?NH\244?\020\257/@\017\237\245?\334P(\277Y\234+\277\006\323T\2764o\031>\360\031h?z7\241>\261\247\240>P\336\321>\014\017c\276\374IY=\256\300\342=\237\027\217\276\340\312\033\276\232\nG\276\264\217\256\276\362M3\277\024l\242\276\251Y\240\276\270=T=_r\226\276\302\311\030\277\240 \227\276\210\255\021?\341v\274\276\267\340\235\276\307\n\374>r\273\030?\026\212z?O~P?\367\340\223?KL\240?\010\325\221>\010\216\177\276\276Qb>\020L(\276\022p\201>\320K\350\274\272h+?\000\340\356<\235r\245<\340-\363=\036W6\277\263\276\325\276\254\226\006>byg\2764,\202?\177T{?\204\222a?\351\233\000?\354x7?~r\263?a5\257?l\345\342?0\240.>\200\002\323\276\033\253h?\246{\003?R\276\321>$\256\013\277L\021\203\277.\\U\277$hE\277$\221k\277\000s\025?z\271\274>\313t\250\276\032\001\222\276\367\236\034\277\024\350\341\276` \033\277\210nV\276VY$?v\322\025@trz?\356\251f\277\245\347\251\277\2454\373\277H\302\335\277\316*\006\300$;\260\277\230\267\004\300\2322\003\300\330/\311\277\320\322\252\277`\225=\277w\325\352\276\026z\360> $w=\005B\251\276Lp:\277w[\206\277g\314a\277\257\343\006\277=\333\207\276\247IJ>\344\036=>,\306\021?\247\242\352\276\2008Y\275\233\266\243\277?\"\307\277\001\207\223\277dey\2778\224\352>@$l?\0303\177>y\243\217>\2341\242\275\"\335\374\2767\200\274>\272O\366=\001\242\022\276F\323\021?mZ\215>\322\305\367>LV\245=\367\373\320\276\206\252\365\276\234\335\216\276\310\212\007?\264\000\n\300P\"M\277\217\353\210\277\200\362\265<\226\257H>n\364)?\200&\322?ebL?\225\317\251?\036\307\323?\252\222\214?:\317r?\316\365\202>\250\n\224\275\266+\315>\246\320\302>\013\334\\?\257\005\303?\302.\361?\354\324\321\276\342\177\224\277\2762\360\277\346\321\372\277\"\307\037\300FzO\276\022E1\277\335\363\302\276\376\237\317\276[\375$\276\014\332\240\276\032\336\336\275P\256\252\274C\277/?\033\373)?\304&\274\275~\333\235\277\231\031\216\277g=\246\277v\325\300\277\034^\031>\342+5?\224\327\253>\340X&?(\327\310>[\302\227>\030\356x\276\235M\231?rA\343?\342\345\267?\002\312\223?\244\r\235?\212A\226?\320n\310?\235\302\313?6Qt?\224\242\215?LH\346\276SL\244\276n\347q\277\312(\310\276\273h\032\276\246\325\335\276\360\231\231\277<(\342\276\256d)\276\202#\033?5\213\327>\313\2619>\373%\016\276\2468\247>.\330\207>\2200<?\345\340$>\363`\241\276\036\264T\276@B\372>(\237\254>\306\025\264>0\254R?\357(D?\320#\014>\324\2419\275M8\330\275\002 \250\276\316\324f\277\n\376\227\277\210\\\256\277\274U/\277X\255\314=F\371J\276F\255v\276V#\316>o\305\027?F\213\223\276$\027\323\276\020I\326\275N\321\374\277\325HK\277\016\024|\277\310u\213\277\354A0>\324\340\235>P\214/=\336\002\023\277\226\234v\277x\315\205\277\317\364z\277\241f\353\277\001-s\277=\272\226\277\020\323\235\277`\214{\277H\035H\2764\352\241\277T&2\300L\247B\300o \005\300[\324\332\277Y\363\206\277\204\241\324\277\'\364\027@\226G\266?(4\022>\003\324 \277\251\333\001\277\320\0226\275& U\277V\032\347\276H\3727=\206T\037\277\"J\r\276\324\250i\277\030\013[\277\205\370\222\277\370\264\263\277\2571N\277\277w\213\277\264\304b\277N\253\201\277 a\214=\321\316g>\201\035\250>\312\337\371>\250\230(>\037\265\003?r[B?@\352!\274\244\005L\277\222\216\307\277\344\3533\300\324\n\326\277\346Q\274\277\346\243\236\277\262w\341\277 n\022\277\330i\305\277\320\031\350\275\235\300w>\262\035\221>6\'\302\276\224\244\247\276\372\3455\276\316\313\024?\234\347\304>\312\221^\276\212\264\017\277\214\333\332>\343\241\330>Z\324\220>\366At\277\301\316\276\276\350Q\322\275Z9*\277Xv\373\2757\271<\277\310\010\272\276\0224\356>\326\034\241=\031\234O?i\001\333>\342\224\340\275\274\377b\277\257`\254\2772\231\275\277\235\202\254\277\000s\306\277\213\266\247\277\266o\215\277\242\032\177\277\324:\220\276\215g\213>\246\312\211\275\2043\255=K-\222\276\316\315/\277\302\201f\276b\026\004?k\304<?8\014l>n]\201\277V\020 \300@\317#\300\227\327\347\277v~\034\300\010X\n\300{\316\"\277\337Y\316\276\226\2516\277@\262\220\274\215\263\005\275\341\257\242\275\360\333f<*Y=>(\030\035\277nWZ>\240\244\345>+\305\222\277#\303}\277\217\206\242\277\370/\017\276\305H\033>JP\004\277\222#\262\2758^>?\033\201\243?:\245\261>8a)\276&\242\253?\314z\254>6X\036\277\240\022\272<L\014\265<\352\326\203>\311\005\357>\016\004V?C\354\\?\203K\035?\'\2472?O\242i?\203\236\356>\r\225\317>F:\203?\016\200X?G\276\340\276\376\035X\277\213\203\001\277\244\266O\277X{\250\277\030v\261\277rtd\277\304\337$\277\233\366\312\276\232\220\337\277\2009\256\275\013\326\311>\370\030\014\275\\\234\231\275z\033\270>\367\266\322>\260q\257>\212\224W\277\375\245I\277\214\353z\277\220z\215=\006\354\350>\330\r\203?\367\035\231?\227\032q?\346\353\330?\340\2646@h\372\323?6\205\342? \370\004@\254\203\336?\375\263\316?\207\230\327?\326\224Q?M\351\311>\335\0248?\003\302\230?gn\304?B\212\264?\356T\033?H\236\211?2\344\313?x\014(?\314\224\274\275\033\337\217\276\255\254*?\254\366\306>\036\016\344=;\033\022?\3763\242?BQ\027?\022j\335>@\216;>\266|\365>\014\375\022?\331Hb?\005\311]?\320G*>\252\266e>m\351y?\021\032\014@\202\206!@\230\\\214?ujU?G3o?n\376q?\240\030\206?4\205T?)\247$?\206\236\022?\370S`?\312\024A>\252\365f\277\\\356\341\277\002k\314\277 \232\017\277\226#\310\276\322\344\370\276R\005\234\276\332\313\014\277\020p\023\276>\201\241\276\236\365\236\277\004l\300\277\212\357\277\277\373\273\301\277\236\003\030\300\336\'\376\2773\237\244\277\210^\305\2774\350\372\277\202#\257\277\2533,\277PR\356\276H\355\305\275\345\330x>\210\233\211\276\340\217\333\273\354\343%?\014\003\203=\323\212\267>\030\245+\277X\355l\277\313\362j\277h\212\205\275\336\374\220\276\224|\367>\234\377\244\275tx\250\276\227p\315\276\270\305\202\277\\w\224\277`1\331\275\"\275\371>\242\031\362?A\323R?\325y\r?\224\227\035>\330\220\005?<\036T>\332o\207>\337\222\375\276\207Y\021\277n\300\263>\230\374O?\210o{\275KT\214?\021\232\376>\330\216$>\276\004\234>\2527\205?i\017^?\323E\371>\235\004\341>\272\231\206?\341\031{?\232\206\004?:\2104?\344\276\202?Ir\223>\264\270\323\275\356]l\277\326\025\215\277~\213\205\277\332\321\226\277\345b\205\277\\\024\201\277\004\305\225\277\226\020,\277\344\366\277\276\203\205\230\276\254Yi>Pv\'\276w\370\032\277\354\370\036\277`h5\275#\006\214?\303\276[?\337n0?%\372\231?m8\256?\320wm><\244\001?\342\016s?d\322\202>\345%\021\277H\0038\277fd\253\276\\{\266=ny\302\276\202\320\317\2756jb?\340\234\353<\330GF\276\250\335\230=\335\220\231\276\2068]\276\236\241\367\276\260\242^\275\\\r\\?\304\227\365>J\337\213>9\003\034?\333\342\274\276\300\374\003\275a)G=\006\301G>@\032|>\006]\225?\363\232H?\320\314\201=X\243\222\277N\246\341\276\200J\240\273\350\350\006<M[\340>H\257\031? \226<\277\312\340\252\277\300\004W=\367\2772\277Z\2770\277\320\3360\275\325=6\277\224rS\2760\306\312\276\372\357\311=W~\215?W\267\274?+\035\334?^\315\340?\240\2367@V\244/@:\213\217\274b\346\025?>\270\255>:1v>\252P\327?3\241\217?\3464\345>\320\230\363=\312*\233?\\`\275?\345\326\256?\250\274\347?\007}\204?27\326?G\005\002@\2647,?\204\010b\276\267l\024?$\245\247\275$\252\305>\254\324\035?\234\323\027?\226<W?\304\335z?\365\274\335>\24698?\000)\341>`\014\035?z \213>\230\234\010>\004k\333>8i\275?t\307\252?\260@a?@ex=\213W\010?.\364A?*K\021?V\360u\277\214\340p\276L\262\236?\226\r7>\326\3707?\246\220\307?\311\213\266?*y\224?q\215~?\247\326\356>\353\030\270\276\231vW\277\350\2559\277\336\177\361\277Z\203\004\300\360A\225\277{\272O\277\032\010\233\277\036X9\277\222\312l\277\240\020\225\276Pjl\2750\232\354\275\350\361r\2768\357\027=\271\370\345>J\0130>\371\336\201=|\t\037=$\025\274=\274{\364\275\360\202\312\276\215;\014\276G\214\227= \212Y?\033D\214?F\036\210?d\333\326?\n\270\002@\323\250\311?\0227\354>\324\366\">\340\177\346>x\334P>D\'\276>`4\301<1DK\277\200\370K>B\246\374=\325_q\276,\1776\277\213<\005\277B\207\273\276\350\001\277\276\241\366A\277\325\260\215\277\371\220\312\277\3625\254\277\262\366\365?b\245\307?\270[\241?\247\321U?);\255?\261\345\271?\006\335\270?\313s\021?\233+\204>\036\235\275=\207\273\201>\335\203w>\204\274\222?x\022\334?L8\245?p\004\032?\3460\201?\275^!?\207\313\316?\357\375\361?\367\302\232?d\320\255?\260\375\370?\204\310\030@~\341\\\277\266g\207>\242\007\230=\227G\214=>@\240>D)\343\275W5\374\276\324\202\253\276\226\337\005?\3536\247>t\306\001?n\251\262>\246zh?\354\321`>\243\274\233?iV\227>\310q\232>\244d\357>\030\205t?\240\177`?^4b?8X\317>\000\312\210\273\346\\>\277\3678-\277\000{M\275\325\362&?\206\t\231>\364\236Y?\371}H?@\212\310?6Oi?\202`=?LV\206?\374j\214?\030\346L>\\\363$>\037\356G=a\242\266>*\352\231\276\320~]?;\330+?\200\"\200\277\020\034\221\277\207\033\315\277<\215\\\277\310\342\235> \217Y<\344\343\305\277\025Hy\277\313q\246\277\177\245\262\277^4\346\277Y)X\277\211\334\007\300Qf\371\277\316\t8\277\373T1\277\023\333\253>C\232\236?hq\211?\003\314\261>>\266\243\275\005\336h\276\340\236g\275\315\034\320>\300\200\r;U\200\222\276\3640\201>h\245 \276\260\332\253=\327\321\030\276\201\201\013?\202\203|?b\304\240?\010A\233?\036\256\307?s\245\327?\231\213\306?\027\013\245?\303\313\262?1\336\021?\002\334l?P\340\300?\335\330T?\273pt?\034\216K>$\275\200>\274\221z\276D\271\316>\026\033X\277ny\207\277\336\242\034\277\266\376=\276\340\361\254\276\022\203\013\277\343\332\234\276\256]\275\276L\217\231\276\224\371{?K\334{?o\267z?\373+r?}3\214?:\267\267\276VI\212\276\005\250S> \336T\273\000\226O\276h\350\\=\374\236\254\276\3469\312\276\340\343\223\276\274*$>\204\347C?\\\342i>L\323\201=\346y%>s\0219\276\030k\252>mU\303?4h\327?`\212\313?\354r\323?\201\362D?\210^\373>t\253I? \025C?\030\237u?N4\010> \207\\?^8O?b\310\325> ,(?\203\356p?\222\242o?\';>?\250\272\213>2\305t?\300R\344>\356T3\277\266V\'\277a/u\277P~D\276\230\304q?8E\215?\020\247A?\306[\273?\256\276\254>\251J\204\276s\336A\277R\025\342\277\022*\263\277\276\n\260\277,\207u\277\375\350W\277P\007\r\277\020\020\007=\254p\332\275\234\327#?&T\001?\000\231\250\275\250\313\001?\200`x<|X\321>R@\021??\202\035\277!\257\005\300\031 \272\277-\020\326\277\215\322K\277\033\243\"\277\010r\315=\236\006\304\276{~\014\300\361 \202\277|d#\277\260Y\313\276/\032D\277\000=J\275s\017\024\277k\t\241\2779!\212\277\273\344>\277y\302@\277\246\305p\277,|\231\276\305\371\327\276\350Ow\277\220\317\340\277m\301\236\277\276X\203\277\256F\001@\340n,@\215\004>@e\3062@~Zs?z\212\233>\277}\333?j\215\014@c\310\255?\202\300\363?\3126\370?\256\307\323?B#\213?\276\327\310?\364Y\255?s\377 @\300k\244<\325}\017\277\004\261\314\276\223\224\321\276)\020\330\276\210\214\266=2\022j?\016\261\217?1\276\346>\304\331\265>h\006:\275\242\361\003\277\033\357X\277n\000J\277\036l\371\276\017=\222>:$\035?\372l\035?(\355\036=L\005\356\276\234\313\005\277r6\005\277\214\256A\277\367\347]\277n\000\276\277o\323\245\277Og\306\277\201\375\204\277 \320n\277\240s\240\276\2409\322=:\263\233>\027M\275\277\364\352\307\277\322\373\242\277\250+\275\277\364{8\277\214\377{\276\310\277\347\276\372\033\370>\311\271\007?\337\327\257\276\220y\300>\202\t}\276\337\014\035\277\366\330\301\277\347\352i\277@\274\346\277`\260:\277\300\256l\277\334\366\002\277\031l;?\200\270\330</\353\266>P\207\365\275F\327\357=:\321\340\276\346\257\010>\023\277\211\276\242\206D\277\350]\013\277\367\333\236\277\270B\034>\300\312\242\276\234\364`\276\024\234\201\2761\271k\276\000H~:\312\307\376>\345<\231\2766\245>\276\206\276T\276}@\235?\371V\247?\270te?PeK>fR\212\276\023\247q>\360\030b\277\246\016B\277\233Q\305>--\312>r\\\342>&\334\305?\206=\024@Y\261U?\250/\314\276k\241\246\277\260S\237\277\231\272G\277\204\2022\277\026y#\277\"U\277\277\241\021\224\277r\225q\277\223<\223\277\371|\202\277\032\321\324\277\332\253\267\277\326\261\000\300\211\203\315\277^\2070\277\354\226\026\277\212\032\313\277\355\370\340\277$\356\335\277\010\270s\277%\260p\277(Mu\276\020\310\236>\034\200=?xA^?\270\"\300?\224%E?\007\'\306?\322z\322?\2403^?t\2506>\216\3458?\342\345\377>\324\312\315>\004\235\272\275\254+\034\277~\350\264\2750\261><\034\377\342\276\245\376\020\277\002$\244\277\220\341#=\242E\330\276|\266\330\276\003\375\024\276\312\032\213\277\262}\233\277\201\323H\277\027\233\327\276\217hN\277WG\243\277\200?\366\273\307\273#?,\241W?\330lb>8\343/\276\373\333\227\276\270*_\277z*\245\277\216\203\351\277\240\003\301\277\322\005\n\3001\204\346\2770S\262\2777\361W\277\233\241~>\260<L?cU\307?.\345_?\305n\035?\250\027\304\275\014v\241\277\260t\230\277:\253\231\277\244\260\n\300\232z \300Z\246\324\277\362\270\225\277\'\257\264\2772u\304\277\330P\334\277\356\351\034\300k$\301\2779#b\277\350uP\277\'\232K\276\225\315\201\277\334\251\215\277Q\343\273\277\034\263\027@2\204d?\000w-\273\277X\213>\316\036P\277\325\323\177\277\214\177j\277\362:\304\277\332\271t\277\330\375\360\276{\367\255>\256\266)\277Ik>\277\367?\315\276JW\216\276(\300\300>\320\232\325\275\036K>>\031\232\256>N\263\023>\324\242\230=\204\025\250>\365\211L?\3449\\?\201\321\234\276\247?\223\276\324q\332\277\020\200\366\2770\313\230\277\356\252{\277\332\016\214\277\312S\006\277\341\301\226>\310\252\323>\330\014K\276D_\277=\241\261\334\276\246\226\377\276\024\000\361=\354\340\213\274q\334\261\2766}>\277\206Y_\277E!/\277\334\305\310>T\271?\2768\006\326<c\231J\276&O\266\277h#\006\276\316$B\276\345ja>&\334\244>\340L\261\274\331M\237>\'\345\002?&\255\377>\226R)?\227\000\277?\036\377\365?\203\032^?\360:\306\275\220\004M\276\364\251\340>\272\267\312\275\032\365l\276\304\244V\277\210=\'\276\320\363\213>0\235\300\274\010\253v\276\223\260\210\276\030\255\207\277\016\232\224>,\025-?0\315\026?\324\211!?\330\361\264?({\014?\0133`? \200\356>\244G\021?\202\255&?\254\347m>\341\t\001\277 \352L\277\212\260\243\277\322`\353\277@\334\275\277\306\305\\\277Or\361\276\220\324\213=\346\237e\2760AS\277\212\206D\277M\013 \277W\334\353>T\010\235\276`,\217==\037\036?\362\364\275>\222\272\350>\007\226*?\314f\223=06\261>\374\211\230\276$\034f?L\360d?x\215\n?D3\005?\324i\006\277\372\362\264\277\334[\216\277lB:\276\3229\"\277\022\342\310\277\345\'_\277\205\253!\277\036\313d>\336\260S\276\023wq\277 !\215\274a>z>\223\367\221?\200\r\244?KF\336>\224\350T?\327\303k?z\314J\276&\302\206>g%\337\276,@\230\275X\301\270\273\201$\305>f\344\'?\233\"\212\276\001\375|\276\206-i\2768U\034?\265!\033?\360tQ?\036\247d?\031]\032?;\n\222?\315\337}\275\320D+\277@\017\234>\377\356\037?\220<\205?.\343\272?\2003b?\007\363\000?\032j$\277\262\326\377\276\023\343\363\276j\365\202\276\230=D\277\350\310\035>x\250\206\276x2\315>\240\237\256\274:\315\211\276]p,\276\370\020l=\231\3459=\301\033e\276\241\331\023\277\342\017\031?\246\262\273?5\333\353?\342\030\374?u\254\363?D=\363?,\307\327?\304\n\226?\356\000\322>\252n[?\2505\205?\320\243@?\370)\005>\253U\223\276\t\273{?\275\016b?\202\324\203>-Y\356=\222\322\311=\212\210\010>\204E\273>\022\376>?\204\330\007?\224c\033\276\307\017X\277_\263\224\276h\0341\276(l\372\276\241\006\362\276@[\014?N\3774\276i\341\356\275\250`\342\276\276\001g\277F\277+\277\235\337\372\277\0049\233\277\300\375\277=\243\035\204?\314\002m?_\022[?\210\300\204?\374\271\243?D>\\?\000\261K?\300x\312;\201\226Z\275\250\237Q\276I\036\236>\372\366\235\276 \324\351\273T\315\272=\341\204N\277\304\325\277\277\316m\352\276\204_\006?^\2603>\277\364\241\275\014\007\335\276\210\r\336>\332x\271>\331#)?\241\217\272?\376\215\234?\366\266d?B\255v?\036\273u>\003f\213?\232\026+?\355\235&?0R\214>\352 \207\276\361{*>\265\231\262?\244{\321?\340\261\351>~\241\n?\224\322\234\277\373\207\321\277\376\307\232\277\201\255\305\277\231\340X\277d\374\223\276P\325O\277(\261>\277@}\005?\216\025a\276V\314J\277:\026\271\276\214\273>\277\304\232\343=\310\346\334>,\337\246\275\211\366\036=W|\364\276\032k}>\214\356`\275\254J\271\2766\361\003\276#lp\276\026\331\205\276v\306R\277\027\036\200\276\206\002\347>RnA?\014?=\276\332\310V=\0262\006?K\211$?\214\245a?\260\375\255?\2106\021> \021\277>w\230\002>\322e\004?{\'\316>\000\235\352=~\252\003?2\261R?Puo>\345\352\331\276mc\241?\201C\226?n\372\312?VN\322?.\210\237?\314\013\266?{\313\264>?cU\276\336\204\005?\312}\252>\342w\245>H\331U\275\244\025A\277\022\nx\277\206\237G\277\n\005\242\276\246^\t\276\354\"\356>\272\320W\276\334\222S=\242\005\217=L\256\036>a\275\222?\332\227\206?\264\037\275\277\301\274\376\276Xo\005>\314\302\035?\273s$?\023%\312>\202F5?C}\256\276\237\334l\277el\034\277[\021\367\2760\364\013\276g\024\301>\323\243\307>TO\000?|\234\262\276 \306\274?nc\224?g\005\233?\375\020_?\035\260\303?)=\246?W\377f?bw\233?\232:\226\276\300\262\373\275\234O\255\276\351`3>EZ\\>\352\254C>g\267\022?\364\260(\277\372C:\276\000z\251\2739\267\277\275\276\370/=\366L\001\277^\nV\277\0072d\277\213\200\202\277\333R\221\277|\364(\277 \215\302\276?\346\023\276\242~\301\2760\261\201>\264\337:\275\306\0356?\306\3650?\020}%=\370\373\360>\262\tQ?\261~N?z\357\220?\367\254>?@\353\233\274\372\305\030\276nc\n?n2\\?t\320\205?H\037%?l\022\310=\372-]?\024\001*?\220\324\314\276d;\035>\264\274\004?\364\020\341\276)\021l?\233\013\222?\030y\251?s:\242?\353\222u\276\340\272`\277\034j\273\275$\034K\276\013\002}?\314\343$?\246\241E?\010\014\260?\314\231\344?\326\2613@F\250\036@p\347\375?\340\037H?\3242m?~h+\277\334]\003\277\376G\352\276\032\020X\277n\344\035\277|\020\271\277\003\013E\277H\244F>\312\n\323>\230\210\017\275\206\253$?\007?,?\240/\013=&\211c?\n\274\005?\3771\345>\217B\364>@\\\035<\022\242\276=m:\306\276\302\217\336>\"\333\026?l\027S\276\345\374O\276\207\254\262>JA\377>7\324%?\370\200\373\275\310\330\231=\333\322\375\276\2169\232\277\373!W\277>\315\206\277\220\272\320\275\350\001\031?nD\325>Z\353\004\277\024\004\376\276C}\242\277@\016e=\374\232\237?\342\000%?\353\n\244>\216\354\227?\361|~?h\346T>\200r\331>\376Ax?\022\352J?\001\344w?\316\005w>`Q\001?\252\337\033?\"\251\240>\206W\364=(\234\220>t2\267\276\254\'l\277\027\277\370\276\220\334\034\275V8)?C\022j?\026PE?u\346\247?\262\262\262?\304\217\326?m(a?\"\316\231>H\014l>\332lF>\334\353\312>\302\367q>Z\307\265>\326\326G\277`8O\276\020\366\311>\215G\n?\022O\343>\306\206\213\2760.X\274\n\315g\276_\360G\277\006T\321\277\n\3565\277\020\262\236\277\030}\232\277\3743-\277\324\266{\277k]\222\276E\331\000\300X\235\255\277\364\222\007\300\234\316\027\300\006\226\003\277\224>4\276\200\234\340\274`\271J\277\312d\233\277\236K\335\277&\365\363\277s\024\233\277\335\2374\277\030\365\221\277\033H\353\277\253=\302\277$O\301\2772\355\226\277\200vs\277d|\254\277\332\t\303\277\036\004\232\277\010\371\216\275\340\316\376\272\251\372}>\024#\253\276\200:9\277\364\240\231\276\2412\371\276$;L\2769\373G?\315j\200?t\364\275?\337\202\265?t\\Q?$\316T>\264\360R\276K\371)\277\324\331{\276!\200\371>\006\217f?\000\277&\276F\\\240\276\364\007\327\276\024EI\276\220:\'\2744\357!>\344\013\205>\315\0018?\0320h?^\311\006?\023\372;?\267\027E>\202s\233\276\3444\323=\300Ps?\220\3302\276\247\355R\276r\326\236\276A*\236?+`\312?61J?\214\360\306?Y\306\215?\226\'\336>\"\203a>\357=\211?`\031\313\276\210w&=\246*?\2763lO\276\372\215p>t\347\247\276\330\305\335=t\377\276\276\204c8?\367W\013?\373n\220?^b4?\342\315Z?\301@S?\016\341\342>|\r\017>r?F>\\\305%\277\244\350\256\276\020\222\244=\336\177\233\276\272-\361>\211\035(\277\242\'\375\276y\362u\276Ld\036>r\374\016?n%\214\276q\177g\277\223b\341>G\203\034?\304\257[\276\236\r\"?\244\346J?\310L=>a\357\334>v\256h\276\213\200\352\276%\321Z\276~X \277\200\2566\277DP\265\277\003M\210\277.\250\335\277]^\301\277\340\365\021\300\215\230}>\262\277\357>\014\244{?\022\014\251>\201\212\000>\216\021\316>\033\273\376>\223\321o\277\264\005W>T%+?~k\323?\262\244J?\377\317s?\337\253\242?\264Il?\200n0?\360\200\244<[\260\256>\\W\370=)\301K\2768f\t\277\030\266\013\275\247\\U?\376\r-?4\245\017\300\266\250\022\277g\324\375\276\030\364\361\276Y\254\213>pp\013\274\325\240\205=0\327c\276\036\371C\277\026\210\262\277W\335\177\277m\251\323\276\244\372\261>\001;4>\\\010\252\276Pn\017\277\262\355\201\275vv\265\276\222>\221\277\354\343O\276\006\006\363\275\"\212(>!\034\250>Xhf\276V\313\336=\224\341/\277\274+/\277\233]3\277\253\"\232\276\250\204\233\276\222\036q\277\326\241\023\2778o\225\276\306AN\277\014_/\277:\001\262\277>Ru\277\276\005\005\277\370\341\240\277\\CQ\277\252\253\274>\2409\342\275\'\014\335>\341\251N?\272iB?\316\344\276>\272\316\301? \227\242?\\\027\327\277\031\324\311\277\017\356\335\277\360\343[\277\247\234E\277\256!!\277 \022n\27702\021=_\312z\276\272H\000\276[(|\277\224\214\263\277\336\236\200\277\252T\016\277\3704\231\277\224\274\030\277X\322c\277\265\330H\277\'\305\356>\370\265\255>^\240\316>3\346\233?\330\251u>\027\315)\277\3462\205>\2028\231>\252 \016\2770\245Z\276W\026\233\277\220\233P\275vl\277>\350\273\223? uE=\021\343\227>Z\242\003?\211\r\005?\330\377C=[\241\022\277s\t\250\276@\216\272>\326\223\014>\336\007\021\277\240\017\371\274\313\267\301\277\240\346i\277P\033\032\277\2352\367\276\246=\000\277\217E\025?/\244*?{\027\014?\0328\037\277\202)\000?\200`\204?\200\256\200?\0062u?>\256v?\357\247X?\312\364\000?\257\250\303>OM:?\027]\236?h\275\346>\234\330\317=)\377J\277\243\363\200\277~Fv\277\236\r/\277&\005\025\277xH\247\277FG\332\276e\311\372\276\377\201,?;\n\326\276\3100\301>\360Hm>]\\1\277\202\036\323\277\266\304>\277\373\034\312\277\311,\242\277\2602\212\277&\274[\277.\351\r\276\036c\233\275\\W\377<\305\262L?\312G\330?\027\302\374>j\273l?$\272\313>\364\336\031?h\254\250>\022_\013>\344F\021\277Sy\245\277jK\370\277v\331\033\300\244\346\024\300\300\326\002\300\256~\352\277v\262\221\277\240\200\273\277(\032\030\300*\302\237\277 \021\276\275\366f\016\277\310\027o\275\001\206\225>\300\242\214\274y_@\277\244\305<\277[[\273\277\'\240\037\277\002\276\035\276\322v\216> RT?r\3363?\016\003\371>\255\3476?\r\203\244?\224^\330?\241\343\230?_[W?\001/\244>\321p\006?\002\340\"\276G* ?\266\246\005>?\321\223\276ZZ\'?\t,\017?\020\271\250<[\024\200\277\240E\001\275)C5?;\000v?W\324t?z\320\217>Sg-\277\220\272\022>\220\210\314>\014d\n=\320fW>s\253\206\276\t\321\227\276\2518\315\276Hf\r?pu5\275\"\301e\277v\006\217\276\024\302\203\276jyk>@\250U?\366\231\277>\000v\210\272\r\0147\276GJ4?l\nC\276\375|\004\277\232\274v>\2311\\\277\224\016\262\277\031\225 \277\273\001t\277\026R-?8_\370\276\370d\247\276\313\314\246\277>\337d\277.A\226\277\234\364\273\277w\346\027\277\006\003\311\276\342{\247\276\244;\270=B\365\213=\235>\352\2764\364\202\275j\2346\277\363\274\267>63\037?`\317&?(\271\302>#\314\263?\310\223 ?Xl\177>5\303\227?y\302\254?\246[\370?\346G\220?>\377\241?\373\"\031\277\350\034+?\246\361\t\277\330`\211\275\313$\344>\030\303S=@c\375\276`)\311<\3139#\277\356\027\212>\363\032\271?\210&\226>\332vi?G\212\306?\357\205\337?A\025\347>W\010\237?P\303\370?\201^\337?\244\335G?\264sZ?\337.G?\032\n7?`\223\245\275\276\205)>~D\027?\224\014%?\234\206\224?\231\261\006@4o\270?L1\257?\036\231\323>}2v?\226\3520?\354\2752?\re\244\276\014\334\330=\253\177-?\264!\r?\316\344\246>\371\304\032?\234\005e?<e\227?\327L\263?[\013\"?`Y[?$}\215\275\'e\362\277i7E?\016\223V>)\265d>Sz5?\300w\270\275\307\321+\275\263\371\236\277\226\200\355\277\331\217\000\300\027\347\n\300\376\371\t\300[I\323\277\206\234+\300\315\3404\300\260N\020\300\242\357\312\277!V\001\300\024\240\205\277:x\016\277\273Ob?@xa\276\302:\211>\224!\177=\014w\203\277\357S\265>\016\222\321\275P\357s\276\200\324\030\277\306\304\231\277\350\034\256\277\026\262`\277\000L1\275j\244\367=\003\251\227\275\314\322R\276\003<\037\277\230\262\351>\360Xh>2\313\213>\210\266\037?\204;g\276m\277\317\275\370:\033>\202\203\247=\036\000\356>\371\026%?\352a\332\276H\030\333=\0323Z\277@<\310\277\227\326\234\277\022m\016\277K-\375\276$O\364\275N\230\211?\373\354S?d\357q?\010M\336?|\303\010?\336\023\227=r\300\245>x\331\'>\202\205M>\006\226\360\276\313\341\207\276\255\020\014?f\226\016?N\272\237?\224L%>wx`\277G,8\277s\225\355\276\'j{>p\376\221\275\\\376\250>T\374/?\360\347v?\374\345\213?\264\017\n?is7?|1[\276H\334\342>\353-\307\276\351\231\235\277`\001.\277\366\027b\277J\202\033\277\374\200P\277\250Jx=r\270\314\276\230s\242>\314\025G?\220\006\003?t\204O>\316\3628=8H\315<\335\001j>\377\321\023?\246\030\343>\314\241\306>\366\302\310\276\200\350\025;\370#\364\276_\310#\277\330M7\277\222\226\177\277\262J\006\277\322\220$\277\235\006\032\277\320T{\277\310\347\035\277&H\320>\334\323\275=\360\252\005\277\004\016\250\276\230\306=>\3057|?\250\033\221?\370z\315\276\367M\024\2764\"o\277\325\035\336\276\221z\370\2767:\033\277\272\035\232\277\323\037\'\277hc]\276\234\251\222\277\022\242\325\277f\355\357\277\374%\361\276\372\013\236\277\264\252\335\276 #\024\277\372\225\251\277\030\252\032\277J\226@\277\2376\205\276\016\324i\276\325\352\006?|\312\235\275X\352J?\347\034\350>\323\313\003?\300B!\277\365\336p\277\204=\363\276X\302\206\277\353\325\034\277,\264\014\277\323I\333\276\024\3053\277\016!\225\2774Pu\277l\250\030\277!\235\221\277\255\245\251\276<\"[?\256F\231?4\334\230\276\352\022\343=h\177\221\2760\220\000\275\276Gt\277dk\200\277\304[+\300\"<\317\277:l+\300.l\263?>{\353?\t\013\225?7\037\213?\336?\350\276\257\251\233\277 \337\321\276\206.\'\277\306\331\244>\177\314\035\277\240\337\324=\357\312\316\276Y\031\210\276G\316\007?\362?\016>dj\303?\243\316n?\204KG?\360\240\233?+c\233?\305\023|?,\310f?\2346E\276\274\375B\275\344\'1\277\300.>\274\364\212\273>\266P\335>\370\337\336>@\226\016>\026\313.\277.\314\345\277\252\350\347\277\032\205\221\277N\026\032\277\205\245\211\277o\205\037\277tm\331\276^O\'\277`\244\223\2742\010V\275o\'@\2762\352\n\277\343\321\340\276%\032\273>Ikw?\361\340\030?\265\234\212>\254TU?N\014\324>\350\270\010\275_\225y?t,h?\004cH>\312\2777\277\200#\203\274N\036\252>\244\320;?N\312\245>\264\271\253=\235g0\277\032\272\357\276\222K\271\276\206\3457\277o\221:\277\300U?\275\316\261\200\276\036\212\352\275CvM\276\2501~\276`/\210\277Nt\206\277y3\020?\363\373\361>\0142\307?C\303\354?\rQ\216?\323\301\223>%\341\207>|)C\277|f;?\332\254t?vl:?\020\006\177>]\331h>\246o\356>\367\023\203?4y\353?\330\270\317\275E\213\242>z\232\321>\304\315\217\275.\214\230>\000\206|\273\270\254\017\277\276\035\'\277\320B\032\277\026\016S\277}\347\005\277:\2560\276.\357\006\275\276\262\341>@:\312\274\231X\'\277\005?\201\277\217SU\277x\333\034=\002#/?\265;\333?[\206U?\253\003\207?*\223\264?m\027<?m\225\036?N\034\277>z\033\320\275\375}\216\276\035?J\276\2402\352<\260\201\006>\216\225\031\276z\314L>\263\253M=o\324r>_\354N\276B3)=\014\355\013\277\244\277\311\276\3644\037\277r\026\210\277\366h\355\277\365$\016\300f\303\'\277mC\311\277\020\001z\276\016\276O\277\267\351u\277DM\224\277\363\257\310\277\230\250S\276P\373?>7)2?u\253\335>\352\247)?C\002\223?\303e}?In>?n\030x?\324\016\350?fd?@\005\275\370?\240\0034?y\353w?8\036A>\023\252\177\277^@\215\27785\001>{\305&\277\2753\341\276\300\021\262\277\304\"\030\276\230\264\334\274\025g\251\274\307\303\360\276\200?\201\274d\024\275\276\204\t\026\277x\3507\276\206G\251\277\232\225\202\277\276\036\204\277\202w\t\277\2700\244\276\372\004)?V\010 ?\363;\265>\214\347\360\276\030\022v>\231\3434\276\226b\223\276f\004\023>c\243\351\276\2420\336\276\303\377\343\276\214\204\017>\256&B\276\006\027\034?2\340\242?:\312j>H\324\305\274\331\234\251>!\241\263>?T\032\277\373V\003\277\330V\000\277\214h\221=\313\350:?/\016\375>\327\201!?\344\250\357=\035\020\203?\212\t\243?V\322A?&s\220?t\366$?_\365\222>\360J\221\275:\214\007\277 g`=\322KT?\257UC?\006\177d\276@c\010>\0318)?\324\364\347>\362\037\t?\350\262\017\277\262\223\327\277\247\031-\300\230\246\243\277k\324\321\277l\245\356\277a\336\032\300\274*\000\300\267\022\252\277\207O\"\277\360\tV\277f,)\277\276\2272\277\000q\224\277\342^\372\277\317\345\004\300M\342\255\277Nf\276\277\3257+\277\370D\035\277\234Ix\277\031\3341\300\347\201I\300\264\005\214\277^@\016>\207\211\002?\300\027J<f\241\315>\027I\200>vVF?~\3736?\322\241\247\276Eb6\277X\207v\276\235;:\277\375\316\256\277@\013[\277\3606\265\2770g\322\276^\312{\277X\336k\277\276\233\312\277\271\334\n\300\215\n\364\277\024\357\323\276\277\225\305\276h\201x\275\236\274\322\276\330\204\215\277\344\274\017\277\350!\337=\314\231(?f\025\253>\3600\264<\000w\021?U\275Q?qW\022?(\260\315>\272Y\226>\324:\003\277\2724\303\276\374\246\234>~\t\362=4\301P\276\345R\224>\266\025\310?\024e\307?\314\325\326?bL\005@R\022\345?\361\320\315?\304\244\222?\353C;?\344\346/>*\265Q\275\331\226)\277\340d\206\275\277\350\002\277bu\230\277\\w\241\277\261Z\311\277\256\270\315\277\360\r\233\277x\361\310\277\324d\n\300m\200u\277\'wm\277Q~\266\276\253\314$\277\234\317\335\276\344V\346\276hO\260\276i\315\220\277\032\021\331\277\351\362\330\277g{E\277\263\t\200?\014\371\244?H\214\231?\373\251\317?\016\271)?,\303\207\276N\234n\277QI\315\276\214s\257\276\236He\277\322d\325\276\212\314\365>ktD>sY\002\276\001\032u>\010\034\313>m\245\254>\227fM?7\212\327?K.0?4z\017?~\312F?v\002e?\304b\244?\025\315\277?\315\375\315?\255\366I?N$\325\276L\267\251\275Kt\324>H\245A>\330\231\220?\352\327l?\311L\010?\244\272^?5-o?q\323\336>\244S\227=\342\031\301\276\302\017\033?\024\\\306=$73?n\341:?\256\016\255?Z\303\225?\'\014\251?(\000\271?D<0?2\276>\277\343\031\300\276&\014O?2\271\351\276\236\334\211\277Oq[\277F\2620\277\3606\225\274\211\363\212\276\261\365\370\276u\022i\277X\3715\276\3358\'\276\021\312\311\276\350\277e>d\203\025\277\024g\356\276\265\3729\277\244\326\201\276uZb>9\\!\277?\245\256\277\326\262\365\277R\3421\300\2375\022\275\302L\340\2751\370\027\276bB\213\276\016\355\177\277\344\213\210\277\025,\376\277r\030\224\277s?\246\277\312\275\035\300\375\005\t\300\023\327\210\277\341i\003\277\000\250Q:\256\353\261\276\330\3259?2\272\235?\200\242\206?\347,\242?\244\260\233?\277\361\256?-\315]?\370\330\305\276m4\017>\375|\202?\301}\302>\346\343\254\275\300\021\211\276\024\206\252\274\214\000C\276\251|!?H%3?\330E\032>\014\305W>\353\202\335>\337\177J>\311\304\316>\211\267\266?p\226\231?\311\362E?\200<\005\276\266G\006\276,:D?\325\333\332>\362\243\202\276\201s\354>\330\235k=:\2460\276f\r\231\277\357\301\227\277\220\225\265>\006\260\214?\261\303\262?Boz?\3023g?6\250\227>\253s%?\266\264\013>\243\314\034\277\204\360a>\220?\250\276@\352n<\036\222\254?\335\027\353?\244\327d?|_Q?#wq?z\254G?\204\264c?\275\207\206?\365Mc?G[g?mA\301=\330\003\377=\234yu>\220\000\001?\250\002\335=\354\007\302\276 \037\261\276\376\017K\276\036\322W\276\031I\314\277\222\212\226\276e\342\240\276\255\347\230>\354K\034\277\nR\340\276\360\206+\277\340\360\302\274p\373\022\275\206\272y\275\207L\271=\360\267\n>\234#O?v\"\310\276y\r\n\277$\205\030?\320\016\025\275:ru>\006\005\275\275V\205A\277d\\\222\277\032c\234>\003{\206\277\376@\261\277W\252\302\277\367{\252\277}V&\277\200d\333<g\017\263>\263B\222>\256\356\353=63\250\276\370\316\235>\344a\304\275\336>\322\275\227\311d\276\0047E=\216\343(\277`\345T\277\016\031\336\277\021\240E\277[:z\277^\224\r\300\204\004\006\300\234s\302\277o\212\315\277b\014\n\277o\006\210\277\345\364W\277\325;\273\277\250\254\357\277\265\277\013\300\255\021\027\300j\2542\300\r\256\361\277\346n\267\277q\352\253\277=\243?\277\201\004U\277#\362C\277\345\206\310\276\350\330\010\275\340+Y\272\037\027]\277\rE\322\276\253\033\234\276X\037\220>\264\005\202?\237I\t?$\242\237\2769\022>\277RC#\277\014\376\277\276 \016X<;s\004?\036II?+\024L?L\334\000><O3\277\"\373\020\277\000\215\371<\230\3249?\022\226_?\304\362\202>\306\003\014>\276k\254>\324uC\276xb\240?\350\020\202>m\346\217?\017\205Z?\364\336\032\276\034\306\241\276\221\210\266\277\362\340\350\277\232\027\231\277\215\253\240\277\264\201C\277\277\230\344\276\310\245@>!\322\357>\360t5?\320\246\271?\244\034t?\233\022\214?\032v=?<:\256?\276\340\257?\205C\010@\346\221\r@\260\306\372?\002\377\034\300\346\206\243\277H\273\001\300\030\256 \300\213\006F\277j\026q\277\004[?\277a\214N\277\345\013q\277\353+`\277\342\317\344\276z\306 \277\254\226\315\276\366\246\226>\264\267B\277j\004\032\277\334T\262\276\256\004\023\276p\275><\224\240[\277&\252b\277;\340\"\277\223&\215\276\006(\201\275\241J\215\277J1S\276\206\325\325\2760\324\234\277,\222,\300\256\303\345\277)\356\266\277.3=\277\207\227R\277D\255\004\300g)\222\277\'\372P\277\332\325\r\277\256i\213\277\022 Y\277\340X\036\277X\356|\277\334g\275>\242\351O\276\330\347\025?|\020\356==\"\203\277t\233O\276\205\027P?*\036\331\276\344Z\262\276\245\362\264\276&o#?8%E>\335\354:\276\240\371\276>s]\'>\306+\200>\260o\035<\221\177@\277\264\035\253\277nr\210\277,\002\304\276@\204v=\353aK?\220\306\243\274v\266\375\276\250Y+\275\002\347\037?@\304\234\2744z)\276\020vw\277]ZB\277k\323b?\306\3551?\366\366\227?\300\245\302?\014/\321?2\024\333?$\023\254>\0022q?R~\021?(\250\254?\300E\333?\3450\266? \017\006\276\337]\257\276:\"\"\277\010I|>\325\366l\277\336Bt\277\320\263\363>\001)\210?\352\311\343?[\373\270?P\324R?IW\352?\211*\253\276\310\303\255>\024{\225>\256-k?f\343\273>\372\213L?\234\377\251?;z\321?p]\250?\337\302b?O\364[?\320\004\242>\037\350\355\276\202\260\021\277\244\272e\277\362\254\335\277o#6\300\r\236=\300,\205\026\300\240o\274\277<\367e>\\\223\344\276:\nk\277\232\346\216\276\3745\214>\265\201\\?I\236\357?N\n\216?\307,\221?\333)\316?\234N\235?NT\322?\332\336?@p\330\367?\326k\243?\223nA?\2267%\276\327fj>\\\315w=\207Z-\277K\"\006\277NNn\276\210P\366<(\345V\277\260|\240\277\035(\317\277\0050\300\277\234F\232\277Z\362\357?\002\205\323?u\247\363?F\n#@\300\265U\275\272#\\\276<\360\013>\217p\243\275V-\215\276;\235\037>^@U>\036\335\352\276f\342\214>\010S-\277\024\306h\276\3245\312\276\204^\261\277\310\210M\276\353>\231?\364\2074?\376\224W?}B\212?[A\371>\320O9>\330-h?.\3578?\030\032q?\351\032<?\024yy>H\"O>z\347\243?i\233\334?\rE\004@\036\237\341>8\201I\275\247G\033\277\366\330)\277x*&\276\032g\212\276\320\332\007?\035|\240?\206\375n?)\2174@\024\335J@|\210\364?\3401\265?\222e\002?\2522W>\254:\024@*\372>?\014\036\036\277X\256J\276\361\372Z>_\007%\277\300bu=t\005\217\276\340#\202\274\000\222%=\342\020>\275(\007\007\277q.!\277Z:c\276\000\022h?\004\272Z?@\304\021?f\313\210?\247L\220?\373\315$?2\000\322?)YN?\314\003\014?\306\315\316>\014/\220\275%\307\212=\004\254\356>\342:\236?z\242t?\323Y\223?\013#\223?\2641\260?;}\337>\265A\317>\260b\034=6>\332\275\332\335p?\210\305\243?\027\223\202?r\2273?\014\215h>\330&\310\275K\311Q\276b(\336>\214\265=>[\321\037?\260\355\273?\272\004\305>d\201\346?\306\'\244?\235\233\021@\261e\334?\313~e?\306\274\301?\232\325\267?\013\335\000@I\265(@\332\3374@\341\341h@~\037}@\3133{@\326\251\267?f7\255?S\007x?\000\206\310\273;=;?\t\361\267>\211\263\001?p\237\357>Vn\370>\000\213^\275\374\376\334\275\004t\210\276a!h\276\240\201D;\036\274\377\276\006)\227\276hE\\\277\311\273!\277\303IJ\277\275+0\277\260[\246\275\206\nS\276\\\230\324\276\310.\220\276e\'>\277p\325\373\277\215\016\002\300\000e\277\277\330\340\367\275\206K\341=\343\255\305>\007\313\033\277\027\217\226\276z6\303\276\356b \277\323h\t?\322\341h?\365\3477?\266\313\256\276\004`\353\2766\345\313\276@\252\010?\241^\355>\206\323\003?\212\276O?\224QF>\210\252#\277\330\n\215\2757f\025?\3208\203<\021\264\020?\021\374\257>\304\245C?;\214\000?\260\273\247>\250\222.>\275\311&\277@\341P\275\254\301\300>f;\270\276\256\362\341>@w\311\275\315\276\276>\0229\027?\200\004Y<\300\304\223\276i\2157?X\322\263\275L+\031?\254\323\205?\221\375\212>\'O9\276\222g>>\264&B?RgJ>d\353\256=\035\375\017=\274\334\030<J\240\006\277\335\334\341\276\366\320r?\212\356\314\276t\271F?\262%\335\276\262wg>hO\217\277\224\246\252\277\320R\221=\034\r\026>C6R\277n\036g\277z$G\277\344,\237\276\227\277x\277\363\371\214\277\227M\301\277A\256K\277\2027m\277\312\216Z\277\266\330\"\277\004\177%>J6\202>&\016\036?\036\370\361?r\271\006@\224L\322?/C\264?\261\342\254>V\273k?\354M\214\276\226v\032>l\241c?<R\232\276tc\242\277\200\264\203;`d\342\276|\234W>\0205=\276\217\204\311\276\344N\312>\3151\355\276^\371,\277\304\030j\276\326*\377\276\200\021\275\274\314\032G?\372\242\252\276\021\365\347\276\360G$?.I\353>\341\302$?t\232\002<\346\200\004? \371\316?\300\266\220?V1\275?\333\002l?\355\264 ?\306sL>\224\302?=\262Z[\277\300\311\006\275D\270\211\277\342\275\304\277.\272P\277\004\013M\277H\022\251\2771`z\277\210\360J\276\240q_\273\026}\227=\374t\251\276\030\266[\276\022\306S>m&\322=\265\363\010@J\343\345?\003\332\216?\3164\302?R\355\217?\014b\302?\220\205\n@z[\313?\366p\016@V\274\344?\313;\214?\336H\267?\365_\377?r\021\215?\264qe>b\207\257>\211E)?HC\220?\020kR?\204A\213?\343B\260?lZ\260?\013\367\232?^e{?\354\004a\276\237\327\206>\324\215\303?\326,\026?u\253\200\277E\347r\277\264\363\256\277%\236~\277\n ^\277T=\313\277[\000\027\277\374.\246\277\317\357#\277\240A\376<\204U^\275\215[\230\277\356\330\256\277\227p0\277;\265\246\276\2440\345\276\363\210\'\276&\261\243=\035\201M\2773\r\311\277V|\217\275J\035\231\276\"\206N\277\224\2609\277-\315F\277\022\022w\276\224\272\010\277\000\242\016\274\204\243\252=N9&?\370\236\314\276\312}2\276\327V:\276\240_\254\276#_\001\277\246\314<?\241\270m?R\006G?\022\213\341?\342h\342?,\336\320?\305\312\366?\204\\\370?7\t\000@\245\253\031\300hV\n\300\023\240\n\300d\027\014\300>\272\264\277\343O\277\277M\231\001\300]\024\205\277\3650.\277\353\010\205\277\354\013\214\276\001&+\277\000\373\333<\003\224\335>\020!>?\223\240\233>\310mS?\036\n>>z\335\314>P4}?\344?)?\210D\360=\332v\317>8w\225=\355\025\244>\232\205Q?a }?\026\306{?\350\234\332?\276=\357>\210\n\221>\230\2176?\000\214#>\332\251C?q\312\376>\240\004\310=&\372\332>:\250e\276\346k\221\277:&!\277\t1_\277:4\202\277\210\000/\276\230T\205>]~=?\3141\212\2758\3235? \3640\275^\204\271\277\\:\240\277\316G\t\300&\346\001\300(\007\020\300>\007\253\277\307\\\266\277\244\231R\277\003x1\277\016mt\277q:y\277\230\220K>\017\275S\277\275\274*\277\302\321\\\277\021a\025\277\001\216\232\276[\314`\276$I\224\276\377\365:>C$\306\275\006x:\277D\001\235\277\346\267\026\300]z|\276\374C\000=\327\354\034> Rd>\241\005s?\n\332\376>\356\304\246?\320*\027\275}\006\036?\275\224E?\331\321s?\200E\210?\005\222Z?\266zr?\221\277\215>`\177\352=\334\350u\275\325\307\233\276@\360\022?\r\002\370>\340\341\023>\340~j\274C\256\034\275\242\010\306\275\005~\246=\343Y\271>\260\034\276=\344\361s\276(\274\366\276g\341\263\277\326\332E\277\250\177\212\2778\247\315\275Co\013?\324\201\364=\247\315u\277(\307\355=3\301\032\2776\353\241\277\350\000G\277(7*\277\313\276\035\277\333\3309\277\232^\216\276\010:\337\275\271\216S?f\377\340?^G!?\'Y\227\277\001(\033\277d}g\276\3438\261\276N\213\t\2779\206\310\277N\327\034?\250\t\023>\246\021\251>$\346\002\277\260\363\352=\347)\021>\302?M?\216o\201?\337\013\226?\314\200\032?M\324\303\276\\\270\301>o3\024\277\313\226\'\277\246 \244\277\013\237\233\277\256\371%\300\024\005H\300\262\360\340\277\022\334D\277\034[\r\276n\361\r?d\315j?\202\036\333?\010E\264>\332]\201\275\374M%>O[O?\250\317R?\360\017\022\275\260tf>l\362W\276\376\024\311\276\221\255\260\276\t_\374\276@6-?\365\"\030?J\223]>@f{\273\221\350\203\276\245K\270\276yk\220\276\023j\377>v\311\223>\374AQ\277\341\212\233\276@\225\305\275\340\257\366>R\210\247?\330\316S\276-\013\016>.\365\305>\214h\222?\372-\301?{\300\233?\342\032I?&J\241?\200\243\335\275\27002\277\241\376\313>\034\350B?\235f\264>N\002\322\276\005\310\276\277\210\036\340\277\001vZ\277\257t.\300\225\217\263\277\214o\021\300\035\223-\300\327q\021\300\327\252#\300\325\225%\300\241\374\t\300 \213\306\277PR4\275(\317\225=U\371g\276A\221B\276\212I\237\276\334FJ\277\314\363j\276\210\200?>\253\331k\277\014\223\341\277\353@\225\277Z\266\235\277\204\361;\277I\225\244\276\375\244%\276\006\226\264>\264J(\276l\377.?l\301L?\305\035\331>\033$\304>i\030\024?J\325\020>\375\252\271\276l\036t\277L-\332\277\030\232~\277\211y\235\277\202\206\022\277T\251\217\275\316\3400?\237XJ?\323\341\003\277\304\360+\2772\251\265>\002\321\320?h\340L?\270~s\276\000\272L\277\363\261v?N8V?X\226A?\271\373\241>\255\326#>\017Oj?\016\270\277>\t\272\\?\3248\033?\225\246\002?\270\204\r>\000*\342\276\254\323\263\277\377\334<\277\233Q\265\277\026Bm\277\310\306;\277\"\246\177\277\376\274\221\277\014\227\034\300\264,7\277L\006\212\275\367\203\240\277\000\221\220\277\366\252?\274\324\034\372\275\322\365\337>1\231A?\207\273\202?\240\201\032?\032\262\251?\374\240m?@\2317\2760\010\261\274\270l\036=\212\333\201\275R>\277>\340\355\311\274v\226\000?a\252O?\036\343\225?Xv\345>\344\362a?,\037\306?\224X\241?\374`&?\267\357G>\022\222\020??\200+\277\\\326}\277^\334u\277o\200\222\277j\230\234\276\rMx\276+\033X\277\332\035K\277\207\0025?\\\004\321?\337\225\331?\377\256|?\024|\321?\006\213\333?RN\004?\364\250\016\276\276\223\222\276`\377%\275\237H9\277\262\363)\277$~5>x\324,\277\375\363\\\277JV\215\277\267\361\203?\204\216\365>\354\270]?\003\2130?\361\006\013?k\022\215?\032\000=?\000\326\036=\267\351_\276\234\373\217\277\301#\025\3004\037H\300\210:1\300bH\016\300,\245\025\300&\335\357\277GZ\220\277l\032R\276\357\246\'\276\025j\211\276\320^\360=3N\356\276[wX\276\366\214g\277\303\342\215?W\321\007?gO1?\206\221\360>\217;\243>\222\021C\276B \247\275r<\307\276\224\222\025\277\230\261\270\276t\210G\276\271\007m\277\335V\366\277O|\307\277\020\0232\276\000\000\255\270\260\204\004?\020\3602\275\241\330\212\277\214\006(\277\004\"G>\211c+??\2725\277\226\017\271\276\017\201\305=t\317\274\277\356\362n\277H\300z\276x\332\202?`\336\220\274I\277[\277\357\306$\277P\240c\277\021\336\214\277\240\212\336=PaQ<\022\325\204>\007,\373>R\207i?8t\230?\343\216\303>\351\343\254\276\310|i=\220\355\010\277\307P\223\277T\r\230> \242~<;\320\n\277\316#)\277\274\305\305\276\2729\300\277g\2548\2778\001\202\277h\r\272\2754\202\366\276\214o\203\275\275cW\276\032\267\313=tS\253<\020\322\230\276\302\347\274\275( 9\277\225\005\377\276t1E\276@\031\352=EM\334\275\345\2241\276\031\366\251\276\320V\210\277\2427\240\276\274-\016\277\3723\221\276\361\3535?\000\206K?F\t\007@]x\036@\351\254\271?\354\257\215?>\340\220?\314\021\377>\224\265:>\247\312\240\276\034\315\305\275\027!8>\252\252\346\276\027>Y\277Yo\225\277\360]\005\276e\372\335>\376\220z?\331\'l?\030\307/?\"Y\253\276\225\315\225\276\\\036\022?\344*\t@\244\371\225?\276\317\316?)p\177?\227\3626?\322\204j?b\246\233?_9\364?&\003\303?\370\206\036?,FV>R?\377\276j\357|\276#E^?`\346P\275\001\256\303>2\335Z?\377\260\235?Y?\202?\243\377\201?\270rB?\0021\037?\234h\241?\327\230\251?i\345\021?E\277\365\276d9\035\277\n\227\246\276\236P\233\276@\356\263>\206\\1?\026j\244?VJ\254?p\340\251>\272\253\330>\322\357R>\344\314)>>x\276>*\014I>H\033C?`\253\007=\232\344\223\276\024\303\223=m\020\206\277\303\010S\277\270\211?\277\330\002x\277]`\224\277\336\303\357\276\214l\262?R\332L?\030\260\300\276\2331\205\277\023\277\233\277\267/6\277\272\016\036\277\211\223\'\277\"\266H\277\276\205\370\276\037Fh\277LsT\276\006s\271\276\275\341\025>\215+7?{\013\t?Q\277\305>f\255R?\342\340\t>p\334\236\277\354\220r\277\010h\275\2774\361\270\277L\254e\277\254\242G?\321\237u>(\364\251?\244\215\324>\360\344\313\276\030\237I\275\343\004#\277p\236a\275\304X-\277c\335\211\277\353\254;\277\000q*\2733\'\251>E\200\022\276\300\337\301\276\317\316\212?n\tB?O9 \277X5\341\276-\273\225\276\027R\341>Nd8?`6\222?\006[\335?\014P\314\277Il}?\227\237O?\241\033R?Dr\245?tq^?\017\376\002?|\017=?\240\261\230=\324S\312\276h\026\354=\216f\352>\336\213\225>\200\260\205;\'C\026?\000^;?\027\224u?F5\254?(1:?\324_\031\276\004h\237\276<\230\215\277\334C\007\300lS)\300\363R\356>\300\375\312\275\026I\231\277\370.\345\277Y\026\352\2777\377\346\277\340\334l\275\312\207j>T\ts=\321\306>\276\034O\202\276$)\201\277\030\234.\277\354\302\367\276\237\035\030\277T\027o\277T\r\270\276\001\274\213\276\\7\374\276\333\261\234>\246r\324\276\202!\217>v\331\016?\342\325\t?{\272\322>\017B\310?\306\n\320?!\367.?%\276\202?\233\227v?\272\021\237?x7\320=\350s\330\276yG\251>\004\001M?\350CH\276\241\241I\277\004e\202=|\250\202>\231\t^\277\033\n\321\277\376\347\206\277\nxb\277Vjl\277\366\226\225>\257\001\231\276\217\005\254\277\302\317\210\277\2705\022\3006\251&\300d\270C\300O]\031\300\345B\002\300\007 \263\277B_\342\277\276\262\304\277\254[\313\277R\035\350\277@?\375\277R\317Q\277x\372\217\277\214\275\311\277s\253\270\277\2369\374\277|\037\310\277\322j~\277\\*$\277\326s\013\277\3065\017\277~WF\276\200\370\242?\202]4?\224\220\373=\277K\317>\370$}\275\342/\217\277y6\223\277\032-\017\300\272\031\364\2779f\000\300\022R\316\277H\366\210\277 \031Y\2761\263\001\277X\313\034\276\007~\262\276|z\212>YY\202>\204{U\275\3416\264=l\254o\276\264\200\223\274\024Tv\276#0\024\276\212\211\205=F\010\000?W\336\226?\014\276\266?l\224\202>\271<\013?R<l?4\257\306?\267/d?X\221\240?ki+?\200~\220>|j\307=R1 \277\210\217D\276j\346\004=?\374m\276*6\247\276J\027W\277\r\360Z\277`-\245\276H\205\243<\314\237\036>\274\222\037?\243\205\025?~\242L?lx\254\277\304K\006\300\360\006\023\300\024+\361\277\006\027\271\277\360%$\277\000\010%=s\303{\276@\035\264\277=7\325\277\373Z\344\277\3340\220\277\276\237\231\276S\033\036\277\240A\022\276\020\372\205\276F$\310>$\345\246>\353\2367?\226\321p?b\226\353>Z\331\234?\210\364\262?\340:\256=.\201\277\277|\246\t\300:]w\277\211\000\177\277WI\004\277\300(\247\277\276\246\002\300A\333\233\277\232f\372\276Z\3035?\276\202m?\016R\006>t\376\315>\214\336\255=[\356\003?\360\271]?\340\217\014?\260\nT>\210\324\347>E \327\276\242\270\006\277\024Xg\277@\350\332\277\010\250&\300\206\304B\274\361\255\265\276\23090\276\214sF>_\325\010\276hKd?a\310&?\230\205\213\277\222\004Y\2774y\231\276\010\316\200=BQ\206>\336\037{?\262\232\264?\202>\232>\330\352L?N\353\231?\236\376\312>\"\3152?\237(\331>Z6p?\340a\371<\375$\360=\203>}>\233\031\272=\364\265\007>9U\001\277}\r\242\277xJb\277\354)\r\277\022\332*>;%\017?\320\204\257\276I\254\270\276\2549\257=\322\324l\276\032b\035=>\222\330\276\020<\330\276\206\233\335>M\244\251\276\006\376.\277\230p\033>\260\360\302>\203\322\307>wn\203?\236h\345>\022M\344>-U\302?d\370\333?\355M\307?\000B @V\261)@\024\337\260?u\341\247?\302u\262?\310\344+?\304\344\200?\032\021\257?\360\340v?k\201\205?]\036Y?\240Ua=\007\224^?\355\005\207?\363\001\013?\225\023\245?$\235m>\n\000\212=$\210_\276\204\254\003>\036V\277\275\237]\000?>:\031?>\220\307>-\340??\220\227[=\317S^\277\216O\223\277`<\264\277r6^\277 7\201\277\264\241&\277\014rB\277\nOM>\265\2115\277\024E\276>T\3455?\034\375>?\274\303O? E\206?a/\305>t\252\255?v\'\301>\r\3149?\302\005\206>\322\000\006\300yO\032\300x\333;\3008\221f\300\301\372O\300h\2278\30026\017\300\332`\025\300\036\326)\300\210\253\200\277\017\275\001\300b@\347\277\331\341y\277\213Ne\277\312X\242>Z\345\001?0\264\211>fz\265\276\352:v>\343\335\217>\000\365\203\272!\202 ?2gs>\002\317\317\275|\'X\2760a\010\276\224\300\345>\212z\354>\223\342A?\274\267^\276\250Q\316\276*|\021\300_\243\n\300\350\362\307\277\013\022\235\277\255%\227\2777b\220\277\035\330V\277\255\244\331\276x\236&\277\376\230\376\276\024\270\022\277\354Zf\277\220\350\267<x\352\270\276\0028i\277\001\274\204\277R\2664\277\025\221\342\276\001\331\215\277\214:\263\276\272\334\256\275[(S\276\202d\214>\025\273\272?L\016\367?\372\325\322?\352\036\221\2765A\010?F\352U?\373<\207>[\206q?F\217\202?\333m\360>\264g\376>\310*\205>\262(C?\000.-=$\301o=\313\374\302\276\201\250\222\277l\374\253\277\017~\356>\266\214\372>\330\351[?\242\025U>\315\032\006\277F\343T\277\230?g\276 \ny\275\211\035\220\276\227JU\277\312\026\216\277T\374\253\277\336\276\243\277\214\r\004\277\346$\317\275o\013\007\277jy>\276\213c3\276\332\3568\276\227\347`>\324\242#\275\344\350\243\276\036\032M\277\370\224\220=\331H\300\276H\364\256>\31670?\336dp?\274\215\274?\260\261n?S\304|?x\023B?\200\235S\274Tl\t\276H\356Z<\301\324\312\2766\321F\277\223\300N\277\024\022y\276|i\342\276\200\254\207\277 \356\256\274,\033@<\217\242<?Yr\211?\262\234\326?\326\n\267?\374g\212>\255\347\233\277\225tr\277\272}\234\277\372\322\262\277F\026\325\277H\367\206\277-\242\376\276\262\323]\277\027\323-\277\254\037\237\276\310\245M\277b<{\277\215{\211\277\203\010\206\277v>\243\277\376\220\312\2773\"\356\277)\363`\277t\242\316\277\037B\302\277\302\022\374\277\344\000;\300\302V\327\277\013.\310\277\216\254\271?X\325\316\275\314\261^\277\340\035\024\277\276\024\020\277vt[\277\\\215\247>Vi\276>(\227\327>\200W\310;i\241,?\000\3040:\326ca>\206\3551?\374\347@?N T>\360\242\266\276\375\212\227\277\326\315\007\277\213\033\317>\371\005\007?-\027\002\277\312\250\336>\310\006P?\275\027*?@\034\356>\364\037\231>\276\302W?\2329\007\276I\271b\277r\\(\277x\335g>cK\304>\300\343U?C\361\337\276\222\034X\277&g\222\277\254hS\277\315\376\277\277r\3458\300\370K\301\277|\223\005\300\234C`\277\231\322\352\276\007\341\022\277\010\247\251=Fk\201\276 \233m\274\355J)>\217\033x>\000\346\352\271\366>V\277\262Z\301\277;\337\331\277*K\232\277\254\227\266\277\307Y\301\2774\037\332\277\016\216\223\277\320\231\233\277,\245\001\277\240\277\\\276\210\313\251>\036\323J>\340\026J?bW\207>k\362\202\276mu\010\277 \330@\276~\357\225\276*6R\276\200c)\276\325J3?\002~/?\316\022\271?\217\362\030?\202<\316>\310\243\250? \037\235?N1J?\276[\203?\321\177\314?\314\241\360?d\277\234?*w\363>y\372:?\246\323G?\305\247\245>\010\004C>\250\032\r\2770\rH\277\202\307\202\277ICH\277>\014\201\276\036!7>n\321\201\276\277An?`Da\275;w-=\336\214m>\232\323\217\275\306\020\316>\264\331M?\\\326;\276\"^\034\277k\"\371\276w\333\353>\251\350n?h\330\267\276\311\2171>j\324_\276\026\353\020?\014\370\026\277\351bW\277\351k\230\277P\230\037\300\002V\035\300W\255@\300\352l\001\300\315\346\360\277\257\320\310\277\271\255g\277f\237\344\276\234\376\227\275\006\2358>\277s\252\276\027\357\000\277\250\001\367\275\2211e?0\256\376\274\263t4\276\300)\364\276D\026\253\277\217\305\204\2773z\255\277\305\225\305\277\373\327\302\277\354\204\216\277\021\006\272\277\2748\205\277>\034\221\277\220\336\250\276\243\232\211\277\033c\021?\372+\235?(\270\022@_e\373?\347\254\354?\237 \272?0\337\321?`\265\202?\270\332s>\202\253_>\005\264\033?gg\177?\335G2?\331\017\375\276v\266\303\277x\006\211=\321\332\226>\303\n\205>\206\324H?|)j?\257\303b?@\003\367?,\335\271?,\350>?\202n`?\216p^?\010\233\023?\000t\030\274<G\240\276\202\322\'>\304\007\324=\370\2357\275\234g*\277<\022 \277\204\333\031\276\314\014\343\276\331\243\321\276\216]\355\276cT\215\276k7\366>\000\242\317\273\311\231\t?w,A?XkW?&\377\360>Y_w?W\272\230?KyU?o\367\323?\360\325\340\277\304\312\271\277\013W\375\277Ef@\300\372\232I\300\256!;\300\361/\311\277\322\372\250\277\2440\036\277\264 \210\275\250*\216<\032#~>\254\333[?\252.\320\276C\372\201\27612O>\205\020\037\276\370\224\035\275(u\035<\035\021\302\276 \354\345<H\3640\276\312\220x\277\374\314\262\277R\004\266>6\330\214\276i\'\022\277\264a\234>\036\303x?\216-\271?\200\216H<\350\031\320\275,d\273>\270\241:\275\271W$\276\314\342\307=Z\'o>v\252\207?\335\0233?U\356h?\274\275]?\306H\t?l\250<\277\350\233c\275F\203\341\275\256E\001\276\340F\267>n\336|>\253f\346\276\310\351\230=6\310\363=f\017D\275\311\017q?\342\260\240?h\314\002@\274H\253?\000\253\207?\226\032\245?\207+\323?\0006\243>o\306\027?\240\326\t?R\230_?B\361B?\034\307F?>7\246?\350\207\366?\377>\006@\262\254\344?\023\351\232?Q\207\236?\210~D>.\211\324\276{\037\303>\2624I\276\032y(\276\230h^\277\274R1\2775\240\204\276\016\370\240>\334\271{?\334\334\332>\220\004\274\274\n,\363\276\2372\363\277d\247\212\277\205\363\264\277\231\315\305\277\211\036C\277\312\377\356\276\304\247\344=|\226?\276$4Q\277f\240<\277\324\227&\276~\232\261\276\336\261\232\276|a<\277\235yd\277p\254\365\276\312\265u\277\234\330\310\276\216\303\316\276K\3117\277\366}\213\276\r\306\200\277\356\200\230\27730\277\277/E\202\277\001A\214\277\372\001\033\277\032\261\220>\350U6?FM=\276mJ\003\277\364^\016?\256\331D\276I|Y\277\326\264\250>\324\214\014?\356-\323>\272}\203>\022\256H=\224\355\231\275>c\250\275\200J\025\277\307Y\334>0\026\373>;\024\223\2769\305\202\276^\240\273>\305\325\337>\272\302\000\276\306\373\201?\034Y\270\276\257|b\276U\242\025\276{\271\373\276\314\261\003\277\322\350\274\276\356\000\006\276}0\214?7\260\323?.\310\363?\331%o?\264\330\245?\330Q\022@\241\001>@\230+\010@\034\261{?\352\t\200?\260\005\353=\240\324\253>\220}\205?\342\255@?B\230\302?\014m\333?\276o\330?L4\230?\027\304\'?\370\215\215?\316\254\334?&,\"@\004\205S@2.W@\244\240,?\032\312a\276\nx\'\277|\372b?D\340;?A; ?hI\312>\334\203(?\220\301\202?\035O\203?\216\343\235?\212/7?\313(\252?\256\030\010@e=\361?\330\300\241>\364\352\234?\252\213\220?\016\352Y?Z\004E?\333\340\310>\214\356p>v!\337\276\3602\325\275\001E\254\276\341u\211?Z\313\005?j\312$?M\001E?\207\036g?G\332\254?\360\211\377>\344\227\377\276_\316\242>\002\255\r\277\367y\023\277\377\303n\277\034\3601>\247\234\025>\210yb\277\3430\374\276`\331\200<\316y\233=\316\376;\276\021\372\302\276\274\271`\277\000\362\367\276\326$\234\276(*/\277s\031q\277\027\002\362\2770\307\204?\330\262\036?\331\276B?\n\3608?\032X\240\276\260\257\314=FGl\276\302D\036\277@\332c<\265\017\037?\246\304\312\276\242/\001?\246g\336>hMn?\350%#?\000zt=\n_\006=\302\001M\276\364\031\024\277\326\311\257\277\300lT\277\340+7?w\307\245?j\315\333?\\\251\324>\306\005V?H\305x??\354\023?\210\025\255>q1.?CQ\371>0\207\252=9\255\211\2776\341\342\277\245\356\226\277\340\372\266=\014\263\334=f\316\005\276\377\241\020\277\026\2344\276$\205\260\275\327`[> 4\010=\220N\034>\234\027\217?hS]?\362i\314>\262\027^\276\376\246\216\276\204@\336\275\320\262G\277%S\312\277\255\033\235\277\322*\213\276\256D\227\275\370\3172\277\375q\n\277\000\367\224:O\326\036\2760f\203\276\3558\265\276\266\231\240?_\271\336>\240\006Z=\341|\310\2769*J\276\017\343a>2\330-?\032_\273?\260{z>\202\344\374=*\234\033>\236\212\260?iL&?H\252G?O\237\265?a\273\000@Ph\032@\346L\257?\032a\302?xz\313>\317+\316>\374\300R\277x\361\211\277$f\315\276\031\326\376>\tY\214?Y\200\200?\025\n~?*\264\310>\350\025l\275\034\217\364>\256\013)\277\367R\334\277\374\017\331\277\300E\026\277\215ZU\277\344\224\245\276\300u_<\351\336+\276^\003\322>t~|?\'\336\323?\205\000\223?P\022`>p.\223\277\220\371:=\016\334\366=m\324\240>\210\211\224<\350j\374>\316[V?\\\225\034?$,K?\207\213q?\020\271\301>aH\214\276B\013\331\276H\3047\277z\214\215>\345\360\033@pc\356?\246\273\376?\002A\322?N\362\272? \312\232>\270\007\230=j\236u\276^\225\365>\t\345A\277\255Zo\277\334lq\276N\311d?\006\033f>6\317,?d65?\273\301 ?\230w\n>4d\334\276\243\334\026\277Z\252\331\276\256r;\277\222\220\237\277@M\226=\330\310)\300\253\336+\300\334\330\246\277\225\243[\277\214\354]\277z\237S\277B\241@\277~\332\002\277B\004~\277\\\277E\277\360\270\216\277\222\332\217\277I\321\253\277\266\352\255\277\223)\260\277J\246\010\300\340Z2\300r\'\022\300\256$]\300@\351(\300t\253\311\276\320YQ=T\2224\276\234\311\333=\252\023\204\276\226\177\017>\304\310\275\275\036\355\003\276\257\316\332>\260\333\266<\\\340\234\276\2446+\276\237\375\r\277\004\334\263=\251\245(?\306\373\255>h\326@?\264\217\271>F\362.?4\2233>\223\265\002\277u+\332\276\313\264c?\351l\232?\376&\363?\320D\334?1\177\036@\013\002 @\377\310\216?T\210`>\364\001\002?b\027%?:G\026?&i\207?P_\217>\324\237X\275<\227\201?8X\017?\226Y;?/\006\311>\354{{?fj\220?$\377\251>\366i\225\276\260o\265<\361z\213?2S[?:\025\305?\241I\243?\2400Q=\254\344q>45\t?\030\356\364>\210p<?\n\033\275?n^\234?-\311\250?\037V\231?\334\013\313?\340\311\014@\254@J?\0102\026?\2648\004>\2759\006?\007\305\027?ZXf?b\r\200?da\261>\322\220\356>VP\037\276\025#+\277\214:\022>=5\215\277\244\210\263\277\344\247\013\300s\241\375\277F\021\263\2764Q4\277e\305-?\304N\032?F\237\013?\205j\204?\324\331;?h\371\245=\210\204\032=?\337s>O\207X>\356\270\013\277\007q5\277 \203\364\276*P\241\277\007\373\305\277\340\'\022\300\317[\024\300\365P\025\300G\347\035\300\256\264\000\300\034|/\300\n,3\300F\324\243\277q\312\243?\270\377\270=!\377\033?\316\3708?\220\275V>(T\233?\241\n\177?O\257\351?\334\211\031@\246\345,@\224\204\024@\266\233(@*\274\n@\370\234\322?\316a\240>\264)\250?._4?\374\373]?\343=\234\276\312\357H\277\320\003x>\206\036\267\276nw\200\276]\265\231\277\336\245\260?\322_\221?\027\306\321?\271\252\201?O\305\016?\0059\217?i\316\223>\304~k?<U0?x\330\263=\322.!=\303\373+?h\321\325>\242jL?\377gd?\003\360\266?w_\240?\371\364<?\232\307\221>lzC?\347\271\232>\312\322Z\276\322\230|?0\2617?\313|\246?\250\202\260>\360g\261>z/ ?\234D\233?\347|\327?\237,\021@\241\3532?\220\034\335\276\317W\003\277\213\226\207>@\023K\275\014(h?h\201\347>p\034>=\306\314\317\275&\201\373\276\236\326\257\276\333\024\274\277\220\"\347\2770\311\257\276\271\315\233\276\300)Z\276\360\264w=\315)\260?\324\247\301?\302\275\301?F\367\301?\360\230\302?\334\357\233>@{@\275\023-\356> \364\025?\226\320\006>9v\241?\246\026\336?\365\361\325?\331\\3?\300NL>\324\242\354?\344\026y?\323\222\355?\375\3375?D\226j?\246\373\376>\202\273~> \342z\274\025\203\361>$\245\007@\262\2532@\212\224\365?\272q\023@\036\216?@\210\303?@\327\3542@,4&@\267\035,@}`\340?\321Y\002@\357.\366?:d\001?\\\t\262\275\313u1\276i\322\277\276\376\353\222\277,\376\027\277\334\016\240\276\032\256j\277\202\304\215\277\252\217\243\277T\313\027\300&\315\025\300\225\352\330>,(\000\276\215\324\333\276\324\252\213\276\360\027\255>\350\\\307>,/\200>\371\223\020\277\342\350J?`i\034<\307\225\"\276\254\r\022>\014\350f\276[`)\277\220\221\226\2777p\254\276RtL\277\254\376\200\277b\004\363>\254\244\256\275\242\303\304\276TU(\277@\253K=\020]\215>\356\202\212?\234,\330?\226\351\260?\260U6>/Ng\276W@>?X\357\241=\366q2>\254Z)\277\"^\025\277/\250\260\277=Ax\277\204\003\314\277T\313y\277x\225)\277\246k\233\277N\034\211\277[\236,\277\234\220\026>\272\367p?\0059\205?\362\310\340? \311\224?\366_\274?\366W\n?h\234\336>\357\304\241>#\037\t\277r\232\033\277\022\356\306\276T~\210\275\220\313\264?H\233\217?\262m\310>\221M\211\276\256\304\030>\326\355\275>\013_\367>\2042\327?\350\237E?Nk;?\0346T?\006\265C?\234\252\031>?Y0?\266\300\200?8/\244?\235\014c?\341,\033?FlU?\224\024\374\275t\324W\276\371\020\325\276\230\276f\277\016\3743\277:\230>\277\323U\275\276p\004\237\277\364\212\231\277h[\340\277\274\351\260\277\206\300\344\277\332!\201\277\370\017\256\277\\\2139\277\365h\206\277\245Rh\277\350\215g\275x5\332=\226\3746?\177\030\210?\375.\203>\031j\225\277\272\307\331\2777\374\257\277\312\205\262\277\377/\237\277B\034\320\277\314{\374\277}\242G\277\342\032\260\277bO\345\277\274\201\257\277\277\322\215\277\353W\252\277>\264\263\277\335U\273\277\201\022\372\277\227\267\252\277\"\210(\277\220\001|=\314\302\333\276\362\212\306>\356\217\277\276j\361\030\277ibJ\277l\2249\277\255\257\225\276\362\203\245\276sK\177\277\310\2573\277\256\226j\277l\356\244\277\204?o\277\316\3007\277\004\025o\277T~i>\002\024/?\2344X?\240\265.?\305\035\340?w\260\210?\200\260v?\212-S?\324\256\200?\334\246u>\260\325\216=\234\301\335>\242s\321>\315Y\215>\303\343\276\277\016K\322\277\010\267\006\300\332\265\010\300\340\227\325\275\214\032\304\276\002\266\225\276\377K7\277\304\261\002\276\277\025\022\277\200\365x?\255kl?\013\205\025? \0239=P\204\262\277\371\312\233\277\236\016\273\277Dpj?\006\242J\276?l\342\275\310@\307\275\20246\277\332\300\203\277\244\246\256\277\215\025\244\277\014\320\207>\264\234\027>\021\025\212\277\000\247R\274\365\235!>`\321\r<\254\371\302\274m%\206\274\350\037\t\276\244E\t=s\022_?8\034?>$c\255\275\243&\371\276=\367\232\277\353^\241\277*\201$\277\273\r\375\276X\214\257\275\214\221e>FvD?\320G\270?\333\226\275?C\315\202\276\246\233u?\260W\230>\242C\222\276\360\233\341>\034xy?\372D\275?\006\027\254?\033\013\220?\366 \037?\324\223x>^\334\017\277\352\260\367>\347\002\332\276RF\207\276p,p\276\"\0041?@\025\356<j\373\025?\262iM>O~\013?p\\x=\177\323;\277@\ng\275\032\322\215\276\027\250\276\276\300s\230>()Q?\226$\224>2\020\301\276:o\313\276\313\331\360\276to\246\277\355\301p\277\310\007\253\277|\022\237\277\217(\242\277\216r\203\276\347d#>\366$\016\277\236sw\277\340\320\003\275\3213\321\276,\n\252=\320U\202\274a\217\r\277\220&V\277\322Q\236\277\236\"\364=\331P\026?`o\257\275\324\357\210\275\\\361J\277p)u\277\372w0\277pns\277\304o\001\276\300C\215\276\266f\236>\356JG\277\373\000\216\277P\223\177\277>\240\241\276\210\354\230=\354\037\212\277\375\014\003\277K\253f\2779\010\255\277\010p\303\277\275\264\032\300\334\250\205\277\277Zj\277\215\365\227?\302\220\271\276\325\334\377\276\276\210\016\276\374Z\'\277\216\246\244>\367\032\005?\026me?\307\347>?W\002\242?\024K\326\276}\254\213>/\2448?\006\r\214?\226U\260>\177\341\227>\"\021S?\271\025\n?c\203\277?v]\261>5\t\230>\204Q\245=\r\257\371\276\240\037I< K\010@\330A\313?5\010\001?\300\022b?\033\370\242?\013{\020?\256V^?J\333\253?\272\241T?\222q\330>\265m\364\2764P\031\2762\347\000\277Lr\233=&\342=\277Q\366\251\2764K\034\276^l\374>^R\001>=\010\300\276\020j\376\275\303\2371\275PNF\277\350\266\240\275\207\327\256\275lZ\327>\263q)?W\312\"?\202\367\003? |\211>x\376\365>\260\3208\277\202\344\376\276(\364\277\275\221\267)?\330:&?\205\210\235>x\027\264?^\030@?\250\354\016>\330m\367\275\263L\356\276\230oD>\"\372\274>\314V\261\276\326k1\277\344f\217\277\251\202\261\277\241\233\253?\225\242\331?_y\300?\270\010\030?\002\310\211?\345\242\223?XJ@?m28?\217\021\257?N\032P?,