node {
  name: "global_step/Initializer/zeros"
  op: "Const"
  attr {
    key: "_class"
    value {
      list {
        s: "loc:@global_step"
      }
    }
  }
  attr {
    key: "_output_shapes"
    value {
      list {
        shape {
        }
      }
    }
  }
  attr {
    key: "dtype"
    value {
      type: DT_INT64
    }
  }
  attr {
    key: "value"
    value {
      tensor {
        dtype: DT_INT64
        tensor_shape {
        }
        int64_val: 0
      }
    }
  }
}
node {
  name: "global_step"
  op: "VariableV2"
  attr {
    key: "_class"
    value {
      list {
        s: "loc:@global_step"
      }
    }
  }
  attr {
    key: "_output_shapes"
    value {
      list {
        shape {
        }
      }
    }
  }
  attr {
    key: "container"
    value {
      s: ""
    }
  }
  attr {
    key: "dtype"
    value {
      type: DT_INT64
    }
  }
  attr {
    key: "shape"
    value {
      shape {
      }
    }
  }
  attr {
    key: "shared_name"
    value {
      s: ""
    }
  }
}
node {
  name: "global_step/Assign"
  op: "Assign"
  input: "global_step"
  input: "global_step/Initializer/zeros"
  attr {
    key: "T"
    value {
      type: DT_INT64
    }
  }
  attr {
    key: "_class"
    value {
      list {
        s: "loc:@global_step"
      }
    }
  }
  attr {
    key: "_output_shapes"
    value {
      list {
        shape {
        }
      }
    }
  }
  attr {
    key: "use_locking"
    value {
      b: true
    }
  }
  attr {
    key: "validate_shape"
    value {
      b: true
    }
  }
}
node {
  name: "global_step/read"
  op: "Identity"
  input: "global_step"
  attr {
    key: "T"
    value {
      type: DT_INT64
    }
  }
  attr {
    key: "_class"
    value {
      list {
        s: "loc:@global_step"
      }
    }
  }
  attr {
    key: "_output_shapes"
    value {
      list {
        shape {
        }
      }
    }
  }
}
node {
  name: "normalize_element/component_0"
  op: "Const"
  attr {
    key: "_output_shapes"
    value {
      list {
        shape {
          dim {
            size: 800
          }
          dim {
            size: 24
          }
          dim {
            size: 1
          }
        }
      }
    }
  }
  attr {
    key: "dtype"
    value {
      type: DT_FLOAT
    }
  }
  attr {
    key: "value"
    value {
      tensor {
        dtype: DT_FLOAT
        tensor_shape {
          dim {
            size: 800
          }
          dim {
            size: 24
          }
          dim {
            size: 1
          }
        }
        tensor_content: "\343CW?\306\226D>\227DO\277\026+\005\277\304\203r\276.\'\246\276\313\'6\276\230\217\024\277\240!\250\277|[H\276\321C`\277\264\317b\2776\010X\277K\220\037\277l\303\315\275\235d\"\277\206\262A\277\005\323S\277\254L\214\277\210\275?\300\272\246\035\300y\365\020\300e\204\370\277\344\242\367\277\260\001\237\277\327}\257\277L\002\201\277\356\036\030\277\326\311&\277\302\211\245>\230P\003\276\327\333\025?\365\252\353>\307X\r?\364\032]?s\364%\277\304\024\250\277\200\016B\277\220\236\030=y\"V\277\355\202\004\277\255\030\235\276$Z\237\277J\353\240\277n%\301\2774\036\023\300\014G\275\277\3066\255\276o\310\215\277\336\212\246\276\014\335\323=.\201\t?\035\021\375>\202qU\277\240\202\256=X\324??j\037\017>\232\277q?` \344=\277\010\272>\200\221\307\275\353\023\020\277\227\326\013\277\320\210\255\277\000\\s\277\026$\221\277\303\255w\277\204Fy\276\210\006\241\277\005]\321\277\214\200\225\277\204W\023\300\324\247C?\362\211!>\222\376m\276C\207\313\276\212\\{\277\225\357\017\277\326\221\231\276\377b2\277\216s\313\277C\220\003\300\343\373@\277z\234\026?\366\221n?\241\265N?g7\335>\030,\007?\247\354\245?\260\257h>\213f\230?\215\021\033@xx\311?RC\201?\003z9?\317o\201>\321F9?\332SR?\017\200[?p\261M=\277J\206?\307\007\002?J!A?L\000\217?\260\242\327>\263\n\016?\300\233\266?2d\366>\360\212\241>,c\310>(\210%\277\344\242\305\275di\221=\037-\213=\360\237\233\274\300\324\005\276?B\315\275w]\253?\004\373\256?\2126~?{\013\211?\233\032\013?\265\307\025?*\375&>\336\023\021? \377`\274\r\343\r\277\367rP?\256?\341\276\306U7\277p\255\224\277u\235L\277\360\254\342\277i\316\251\277u<k\277Xu\265\277\204\035\371\276\000\232\225\277\314B\">\230<t\276\376;\351\277Y-\340\277\250\250\264>4\331\261>~\310\026@3\2268@&\244_@\311\355\367?B\203??Jru?\302!\217?\216\236\225>\304@\362>kJN\277zR\254\277\201\027}\277U<\332\276z\033\215\277n\250\227\277n\006;\277\n`\213\277\220v\352\277p\034\246\275U\321G?\001\003\272>\326(\036\276kQ\273\277v\020\365\276[9\255\276\217,\275>\270\342\250=\234\025\316=\340\035\353\276\220u\202\275\342V1>D[\r?-\235\347>\342\267&?\004D$\276A\214c\277\036\277\222>P>\312?\204\031(@\202\315W@!h)@\316d\020@\370\220\200?\356Op?!\357\217>\006\254S\2774w\243\277|&\262\277\351\316\376\275Z\264\265\276|\300\307\276\"\3317\276|\377\201\276\222\\#?\276\355\303?\244X\026@S\034\244?\234(\310>@\314W=\327\341-?\030cS?\006\273H?\370\361\215?0\363h\275\225\235\333\276\246\261\207\277N\004\246\277\016\371\324\277\000\320\243:\006\261V?\300\273\036@\317B\034@\026\031z\277\202\253\222\277<0\313\276\"Fq\277!\276\207\277\221\022\350\276\027\274S\276\310|:>\235\330\316>\302\203\\?\347d\254?e\307\252?\346\260\272?\304 \300>\255>\257>\322\237^?\271\345\001\277\2764p\277\002\336\373\276\357\001\345\276]\243\257>d \223=\036\223\226\276$\302\257\275\005\361\301?\270;\333>\336\326\005?\\\035\254\275\330>\234?\274\320\204?\252\370\216?\327\177\262?%\374=?j\250\213>\360!@\277\236\302d\277GT\'\277W\261\002\277\007\017\330\276VI)?t\365\002?\274\326\017?\305\266\214>%\235\003\276\340\335\206\277q\332\032\277m_\204\277Dr\203\277\254\327\242?\036\312\031?\342\333\216?\274f\370?\264\204\220>\200\274N>\017\317\221\2766X\212>\310\027\202>\321a\235\2777D\326\277\020\304\312\277T\367\377\277\207k\320\277;a\330\277\024\246\177\277\230\016\275\276\027\0219\277\245^\'\277h\356\307>\205\225\020>8\335\014\277\034\000f\277\372cD\277Lp\260\277\375\257\000\300\333g\301\277\\R\202\277\370\014\237=\361.@?\034\021Z\276\371\032I\277\324\236P\2770\3255\275\346x?\275\256&\226\276H\375\337\277\351\371\030\300\2142\242\277\3043\333\277\302\247\252\277\350\356>?\247\347/@\017K\007@\352\306\345?.\334C?\206P\313>c\236\314>\243\251\036@\355\036$@3\254\323?\031\2472?\300\271\362>\212\205j>\205\033\224\277\256|\205\276z\262\313\277n\013P\277\305\243\024\277*\343\234\277\227;q\277\000O\302;\215\200r\276\255\353\223\275\212\217D=\036\020\270\276\204\037\221\277\225\312\034\277\335\213\237>\330B\252>\304\021\373\275\203\301\240\277r\'\265\276\272\303\261\277Q\323\343\277\230\013\355\277\n\026\022\300<]!\300xU1\276\362\322G\277\306O\244\277\273\364\205\277G\004u\277\230,\271\275;\252\233>\254i9>\204\303\027>*~l?\224\347z?\000\246\027?\326\003\306>\344\325\267>@\304e?\316\003\236\277\034fA>^\370\024?\206\022-\275\307o\014\276\322$\224>\254*N\275\225\337\177\277\302\366\032\277\024M\301?0\250\233?l\200\004@\274\300\260> \252\031\277G\020,\277e\226\005\277,!u\2778p,>\317\366{?M\256\031@M\033\023@\244V8@=\210\236?\021\362\234?Hy\222?\303\027\237?n\366\315?/\241\227>\033\351\244\277^>\253\277\220\003\215\277\362e\005\277\3408\033\275\030\322^>\346\n\005\277\230x\205\276\366a\273>T\306\277\275\217\022\241\276\334\216\206\277\241\363\325\276\210\013\336\275?\3771\277\321\022\216\277#\261\224\277\342\222\221\276\325\253g\277\351\rm\277\037\373\200\277\366\253\304\276\372o\251\277\'c\355\276L\273)?`\376\230<\3357\266=\" &\277\366\027\265\276\224\207\206\2774\314|\277\304\273O\277\020\247\253=}\357\316\276\267\265\255\276\362{\234\276\235\r\250>Q\033s>A\234\210>?\010\254>\272~\025\277\000\225m\273\021\331\243\276ee\314\276\264\230W\276\2306\234\277\316&\277\277\367\204\262>\342\377$?\002\032\263>\250\'#=\214=\204?0\253\322?\224>\201?\305\254\221?@\016\261>TM\005?\330\267\246>\214\223\363=\260E\303>\302\312\036?xu\217>\002M\222?*\020\035@jr\365?l\035 @\205\201\030@OG\331?\215\272\242?\375\324\274?\000\251\203\273\203\220\271?\036\374\241?\320\231\003\276\\\314\327\276n\027\037\277\031\222\273\2760_\277=\030Y\243?\031\256\223?\224\206\267\276.\261\233>\330hh>\275\320\261>\364\236v?\003\324N?\254\201\226\276\355`\211\277\261,\017\300\374|\300\277X)\322>\3311\317?%P\260?\312\001\237?\254\tv?\251\226x\276\013\352\205?\240^y= \1779>q\013\032\277\261\032\314>\267\300V?\213M>?\256\003\003?P\230\005?R\203O?\200Z\350=\345\031\223?\206\025\303?\373\362\260?\320\252\030@\251)\003@\024)#@`\373Q\276\310*O\2772\304I\277n\033~\277\255j\007\300]\220\002\3008`H\276$!&?`\331v?\t\350\020\277\032CN\276\315\321t?\324\374\303?\242/\026@\250\231\265?\0065\300?\334\272\242>\214Oe?\374Wu\276\327\266\207?\212w\021?x\357x\277\316?\204\277\026\234s\277\277\007U\277X*\314\277\301\204\010\300X\354\240\277\330\n\"\277\220\020\241=9w\331?d(\207?p\201\217?\215\036\360>\010\"\201=\246\t^?\000\373\035\277\nB<?\326\n5> \223^<t\033\316\2751\242\333=(\336}?\360\034\377?N:\363?\347\267\312?\326e\362?,C\333?\354\224)@\232^\227?vE\202?\324\031\271?x\023d?i\2661?q6\261>\321\306+? SM\276\330\355\247\277\027\361\241\277 \353\304\276\002\3412\277uVd\277\330\3056\277\204\033\037>\316+\031>\024)\210=\212\3458\277\320$6>i; \277\232S\005\277\336(\223\276\334\217\324\276>E+\277j\251\003\277\036\001\237\277\247n+\277\350\205\255\277\rf\214\277M2\240\276\310\210\263\2775\243\321\277)\206\002\3006\262:\277\0208\313\277J\365\272\277L\262\210\277\374|\250\277\360\337\270\2772V#\277\310~\277>\225\257c? \256\n=[\336\024>^\2536?\001{\324?\366\023\320?W\321\030@\240\223e@\260\344!@\266wE@\231\013o@\360\201\022@\246\236\367\276CH(\2772\327W?\007g\242?\201\347\n@\326\241\020@\2264\020@\300\032F@\216\2621@\223\251\003@S9\252?\020C\341=\300\263\353\276\310~\014\277~j\375\276\256\224d\277\262s\034\277\'\306\256\276\024\363\001?{n\037?T&\306?\"\205\275?\300\342\351\275\263-;\277\000Pg?\216\372\247?\372p\331?\034Pu?J<\001?\265\275\215?\331\263`?\037g\372?\257\205T@C#\323?p\277\324?\341\312\023@\354\312\256?s\316\252?\334*\330?B\205\300?\024Ob?#`\324?\236\037\275?\3121\234>\\^\222\277\364\034?\277\331S\023?\347%\377?\354K\330\276\3264\014>\255L0?w\247\201?\310\337\271>J\364w>;\346\235?Zw\221>[y8\276\330a\225>)\327\260>@W\036\2753\321\213\277\006\n\263\277\237c\006\277\200^\'\277\332?\376\276\0230\352\277L6K\277P\246\243=\326\242\235?\031V\005@\035\267\274?Z\315\336?\004L@?\020\264\033\276\250\352\201<\355\347\006\277\2261.>\356\021G?&7\210?\354\342i?J\356C?f\362L?=\327\216?\211\241\326>\217?\005\277w4\215\276\022Y\216\277\207\225\035\277\210\237\227=\345\272\354\276\212\027\t?t\304&\277\224$\030>\215\333\247?\254Mk?\353\352V?\323\272\375\276w\235w\277]Z\265\276\236\';\276\334\301\314\276\320S\207\277=\345\247\277T=\"\3002(\010\300\035\023a\277\270\320\271\277\300{\343\277\030&\323\277\257-P\277\240[*\275\303\263\344>\371\364X\277<\237\204\276$N\263=\266\321\025>\025T\226?\204\"->\202R8\277\272\362\261\277\'\253\266\276\361\340m\276\223c\265\2768UG\277\302\343f\277\023e\005\277\267\361\226\277\000\324\341\277So\201\277\347\267\020\300\032\363\232\277u\221\002\300\364\315\206\276c!.>\224YS\277P3N>\032\311\007?\022\3157?8\334\206=\016\270\346>\3350\265>\354\335G?@\267T=\302\001\347\276\222\022X?\353X\207?\352\310\230?\371F\213?\342o\216?\354\004\000@#\022\r@9\n|?\244t\225?\272\033\212>R\3439\276\321Oj?\"\343b?n\270\035@\002\035a@f\312\205@\201$X@\230\225\341?El\007@\360\033\327=^8\337=+U\026>+v\342>\370\304\316>\205\317\034>B\034\206\276FN\241=\005\316\346\276\215\220\357>f\006J?t\013m?\203\304Y?@\336x\276\261\014\224\277\376\257\203\277`\303\214\277\272\353\013\300D_3\300\312\211 \300&3\005\300\300\301\222\277\004!X\277\3343}>\260\2369?H\254\344>r\021=?\333H\306?\214\034\336?\330\226\001>/z\225=\t8\021\2766\006B\277\200\006r\277\376\370q\277\204H\203\277\304>\020\276\254,r\277\003\260\252\276<\256x\277P\320;\276\"\276\253?W:\234?\250\203\242?\303\036\020?-&\226\276\330\205\230\275&\211\027\276\017\373\226\277\250 >\277z\002\240\277L\313\250\277\301\035\246\277\277\325_?6\233f\2770\032A\277\310\024\233>h\361\n=\340\203V>\273bV?\032\nO?\252\224>?\336\237\274?\251\202\256?\314\325b>>Bq=\317z\217\2776\204\374\276\247\266\274\277\226\3034\277\000Xy:[\316\355\275JM\305>\017\272\"?~\352\261?\"\225/?\034\276\256>\027\373.?\250\022\332?p2\333?\366c\235?\341g\024@@\226\n@\022\0367@j\203\366?D2\005@\322\010\231?\252x\307?<2U?}\214,?(\234J>\345a\267>\351\372/?k\225\212>YT0?\267\2141?\260\347\260>\217\211(?\200\363\"\275\376\215i?\274:\033?S\277\372\277\370\016\212\276\200Q^\276*\352\364=\035v\211\276X\247Y\276\340\347\035\277(}y\277\004\377\005\276 \n!\277&\250\230\277\312C\217\276\337\036n?Z\316{?\224\245|?\363\357$?W<$\2772\343v\277^\210\206\277\033\021\030?\346\235\271\276 \224*<\017\366\251?@\027\217=\002\232+>\315\274\024?\252\033K>\315\242\013?p\013B\275\363b\317?<t\035@\240z+@\032z\r@[\272\346?\242h\013@\324\216\354?\301e8?\t\r\211?\315\315\n@\016\203\274?\240Y\324?\201\215\255?x\024I?\027l]?>q\212?l\314T?\376\276l>\372x\303>t\024S\277n\030\243\277\020\214K\277 ]\263<ci)?\236\253\217?2m0?\020\251\214=6[\267\275\021b\324=\2063\260>\010{)\277\356\2722?$ \007\276\342\007Y>\n\373\237>\260\214\037=/\344|?\205\354\362>\014e\266?\273E\212?\336\206\016?IP\373\276\256m\253?\231\375\2239\201\354p=\2167L>z\360\212?\342\363\027?p9&>1k\370?\363\214\213?\267\214$?\254\214b>\365\215\332>\031\3754?\3061\321?\351\231j?N\013\034?Q\262\327?\244\255\266?^=\347>p\350;?\020\364\206=Lx\265>\337\001t?\000\225n?\250EW\276\363\231\313?\242\236\005@\304\356=?\350Q*?\016~\330\276\333M\264\277\315\004\223\277d^\317\276\2304\022\2771\320\003?5\343+?L\026\311\276\31438?\340\025\231?\342k\316>):+?\314\347\202>\322\312\227?\200k\345>\350=`?\306\345\267?t\007\261?8\353\010@\202e\206?-k\307\273\350\374\210\277\267\033\206\2775\002K\277\301\033\216\276\274U\243>K1x>\026\250\271>@\023\232?\014\030\353>\000\020j\2731\254Y\276\224\025\211?\276`\245>\320\215X\277n\267\250\277\256\323\301\277\210\371\017\276`\205\n\277`\243\013=\246G1\277\306\317\226?|?@?@)\312?\305\337\030\277x\200\202\276v\375/?BgC>\263`r\276P^p\277\2603<\275H%\320>h>\273\275nz\204\277\334\252\004>\346\336\201=\377\241\227>L\352\000?\311\017G?\237*\003?]\310\313\276\000\016\022\300\0101?\3008\2545\300`\010\001\300@\370\271\277\252\240\223\276\004:\014\277I\370\251?\3168\n@\035I\261?\006l @\336C\206?H\036\207?\216p\331?*[\013@\022\005W@r\306H@\356\225\312?<G4?P,\240\276^\230\263\277\270\355\270\277\345\317\026\300,\333\003\300\213(\017\300\362\230\336\277\270\257\221\276&\267#?\276\006\031>x/\026\277M\n\234?\253\232\307=\276\032\212?pY\314?\002\301\354?N\347\241?Q\221\301?4r\243?\222\332\013@\227~\315?\n\341\253>\306\325\203>+\240\001\276\315\362\327>P\001\243>\356\375\334?\354\003\217?\036\330X?\332\177\357>\354\316\225?\177\220\261?K\224)@\264\206=@_E\201?\007\317\n?G\204X\275\006\323\351\277&\333\024\300\nW\331\277\240\200\001\300\213B\363\277\252\031\216\277\324Qy>\314?8\2778\265\257\277\300\272\213\274@5\t\277\234\002\006?6\271\031\276\003\272\246\276\250&\267\276\000s\037\275%\325F\277\222?Z\277zp\000\3001\370*\300\276\2038\277\337c(\277\235\211\034\2772\305o\277\310\361\341\276KX)\277\243\342\'\277N\271 \277\244\375\374\275R&7?\034\034\005@\311\270\232?4\345\211>\221\371M\277Wc\301\276\351\322/\277F\275 \277\000t\344;\276\227Q?\t\3212?\\\371\001?\322\207\002?l\251\310>\212\006\215\277\030\261\353\277S\302\010\300\226\021~\277> \266<\330=\326\273m\363\271>\352\026\345\276\206B0?\372\327\024@\002\360\270?n\362\316?\036u\027@I\335 @|:\244?\002p\222?j\256\321?(+\264?\tw\370?\r=p?Z\223\373>\354U\201=\010\324\240\276TR\353=\211;\362=\372\315q\275\337\022\266\276\350\013\260\275\323\264\342\275H\341\271\276D\036\226>pb\260\276@\001\214\277\0366F\277\310v\261\275\252\2315=D\016\251>\372\311Y?\201\303b?\326\316\277?9\027\370?\376\034\376?\246\260\324?\340\261\260>p9`\275\322\341A>x\262\203?X\201\300\275\340\311\260\276\277\314\246\276\314hV?\352g;\277\275\026\314\277\320\310\310\277\307\210\206\277\354\217\235\277f\264\276\277\r\305\017\277=\200\244\277\210g\352\275\311\340\316\276ih\267\276d\026\350\277\000\356\305\277\034F\325\276\334o\243\275,\274\003\276\036\310\"?\213\036\202\277\226\256\367\277\037Y\307\277\250\261:\277*\205!\277OME\277\021\264\230\277\353\244\023\277\244\373M?\350\024\256\275\331,\017\277\234\001\304\277 ~T\276y\017\213?\312\313\002?\036\355\025\277\373\350v\276\312\270\n?w\356^>/\223l\276:\007^\276%\207\316\277}G\336\277\312\361\302\277\3075\030\300\0325\371\277\177\204\276\277\340e\027\276\320\3743\277|\342\026\276J\220=>\214y\006@>\317\031\277\327\026\371\277RG\266\277\026\335\007\300\000\377\251\276\026Sp\276\237\277:\276\314\306\206\276P%\210\276\321\333]\277:\002\003\300\026}(\300\034\302\t\300.\213\010\300\260\311\220\277@%*\277\224\272\311\277\036\203R\277z\004\326>D.\234?\370\005\204?\316\3313\277\020\240o>\013\223:>e\336Y>\344\372^?*@\016?.\252\003\277\244J\227=Rj\026?\022\364\020@\'\337\352?\320\337\340?\363\2641?\232_\"\277$>k>\320SE\274\020\032-\277\200\351\261\276\343\016\225\277\035\036\341\277\200\374\324\277\032\342e\277|6\n\276L\246\035?\250NS?\233\246J?\344\267u>f;\357=\005\032e>\023 g?\262\005\221?\314\335/?@\326\326\274\0052\263>$\300Z\277$\251Z\277\r+e\277\2344\t\277\240\027R\276(\317\303\276\352\022K\277\210~\002\276/\274\351\276\0330(\277\260|\213\277\327(w\277p\334q>Q\344\226?\264\343+?\267\205$\277\364\212\255\2768\311\254\277\014!Y\277(=\332\277\245\304\004\300\365C\301\277$\351\365\277\243\210\013\300\236\002\227\277\024y\351\277b\346\000\300\tp\023\300Zb1\300H\361\243\277\036s\231\277\225y\211\277\220\003/\277\203eT\277\024\271\366\276\216\320\027>\034\236 >uU,\276=\226\000\277\016\267z\277\223A\201\277G\265n\277\234\003\232>\223\2547?\300\350\227\274\214\327\023\276C\251\261=\244\3113\2765\332.\277\233=\207\276\305$\363\276\003{\372\277\364\343\255\277\254\272\227\277^*\365\276B\220s?`N=?*\266\375>\004\033G\276\026\364O\2779W\006?\225\001\364>\340\330\305<\002\311\034>\020n\207?\302\266\231>A\323c?\026}\244\277\214W\316\277\244\210a\277\036\221\005\277\257NN\277\370\345\351\276\"8h\277{Zi\277^\302\261>{ul?<\321V?\200\t\362\275\356\201\002?3\376,?\320R\330?M\022\352?tE\210?(\250\362=1\341g>\nB\254\276m\215\237\277\252l\212\277\305\254c>-\225\007@#2\016@\323\252\005@\222t.@}\366\020@\351|\327?o\301\013@X\246\365>pN\037?Lo\304> \224J>\342\343U?|k\320?\240$9>\213\350\032\277\022\324\366>\212hK\276\347\226/\277\220\310\'\276\254\262\005\277\356\260J\277\350\377\030\277#\365\250\277xmm\277\301\305\271\277\261%n\277\032C\267\277\030V\264\277g\210\211\277*w\310\277\237*\240\277\341\323e\277\342\213\226\277\220\221j\277b\025\033\277\004\n\355\277\017\264\231\277\001\317\233\277Ro\274\277^fi\277\302\240\r\277\214\360\223\277\327\217\022\300\200\005\223\277\2063\341\277\034\335\024\300a\245.\300\350\023\372?\304W\362?\207\031\n@\374\275\022@.\026\243?\013@\003?x\220\223\275s\224\236\277\340t\007=\316;\037\276\250p\235\277<$#>_*\207?L\375\021?*y|\276\310\'\031\277\255\352\236>\212\372\201?P\322\337?\317\330z?\004~\270?\326\336D?\010\345\027?\211\342\320>\177\240\201\276\020\234C\277\232\346I\277\000\361\206\277\213\310\361\277\231>\215\277l\374)\277\332h\303>\266\351\250?f\265\332?\311(\'?&uk?\230\035\315\276:\215\265\276\344\035d>\264\263:?\254\034.?RCi?\007\334P?\004\276\037>\362\020\222?\300h\027>\202\030e>\343\337#?Y\232\355\276\360!\260\274q\276\232\277\300*\220\277^\027v\277\242Q\254>\024\244\376>H-7?\201\247\003?6\233(?\252\'\232?\305\267\366?AS\327?\251#\255?V\211\262?\354\232\334\276\230:%\277f\344Y\277\325A`\277\366\223\337\277\262\2108\277\"\317\236\277\306\021\216\277\003\222a\277\231\307\307?0\365\363?\221u\224?0Z{?\320\rx?\3465\365\276I\340\256>Fq\226=\371\r\363?\344\357\221?\214\236\217>\365D\247?\010\331\372>\316\364:?V\304\247\276\\.\305=\371\315\350>)\314\362?\010\013\206?\274\341\202?\370`\r?\266\206\n?\030<!?\261\237-?\227\2646\277R\003Z\277&|a\277\370<\353\276V\371\253\276A\371\255\277\030\024\003\300\373\243Z\277g\276\"\277\274\241\275>\263\014\007?\352 \302\276 1O?\260^\336?tA\221\276d\225\030?\350\004\250=J<\023\276\350\036\037\277\234;\226>\230o\243\277d\337\220\277\307CU\277\2108\341\275$\'\217?\n\301i?\302\023\202?U\020@?\273\373\304?N\t\224?R\246\325?\357Y\354?\007I\007@L/\\? \316\207\274Y\256D\277\256\243\360\276{\334\004\277\2646\276\276\331\213\261>?\007\317\276\235W\004?\225\263\355>0\213\265=O(q\277H\344P>\367\365K\276\032\3315>7\271~?CY\300?0\262\341=\024\037O?P\233\376>)}\313\276#\365\377>\353\013$>\260{&\277\276\220\205\277\013\241\206\277l]s?\020\200\262?\316\316j?\230\327\301=@M\360;}\212\202\277I~\\\277\000M*<\202\243\005?b\333\242?\030\306\310?\226\021\234?R\245^?\026WB\277\373\337\271\277\330\266F\277PJ\305\277n=\236\276\330\373\302\276\214\"\361\276\376\024\312>\244\361\377>\\\2042\277\334\003\224\2770\215\257>f\305\020\277&\366\374\276\204A|\277\237l\217\277\315\320\227\277\035x\253\277\237\340\265\277\222\377\372\277\214!\325\277p\251\345\277]\271\355\277\200\324\016\277%+K\277\032\336\237\2778P\255\277\000\234\026\300>0\316\277\267\215w\277\355\232\210\277E\005\364\276:#?\277\'\325\365\276\232\223:\2776\275\262\277K\035\036\277\033\367\242?\210\033\010\276\225\006<?a\001\177\277\334K\204\277\220@t\275/\214\256>\362\223\213>\205#!?\312\000\367?<H\200?\305;\035>\203K\215\277\n\311U\277\212\362\352\276\244\315\224\276\356\013H\277=\227\030?\234)A? \345\017>\020\373\025\276\265 \030\276\210\202\301?\342\353\301?L\030\257>\3245\364\275xz\344?F\207\234?c\334!?u\312x?,\200\364\276\352$\003\276\272\003\340>\354\312\241?\276v\221?\224\312#?\311 \226?\231\000\304?aV\316?\006\371R?Z\331C>\355\314\331\276z\031)\277\247\310\002\277*yJ\277N\264K\277\236\177u\276\250\244\020=\315\002V?:Q\332\276\200*\004\277\260A\213\275\024DT>X\310\273\276\236S\202\277\022v4\277\370\351\225>\316+\007\277\303\177\235>\t\036l\277Y\031\336\277G\306\320\277nd3\300\302\226\'\300XIO\300\374\271P\300m\"\020\300D\246I\277\274\255\352\277(\256\314\277`\351\014\276\2316\272=\303\226\326>\301\361\340?\020\234$@|\204\242?pc\324?I\264\215?\277`\224?\030\022\266?1k\354?\206`*@\302\267\335?\3320\252\276`)~<\272{\215\277\340\234\306\277\021\017r\277\003\347\344\276^\253\252\277\266\243\213\277\342\373\311\277\274\345_\277\220!->B4\373\276?\265\211\277\205\\\234\277\270lu\277\220\302\335\277\256\264\342\2771F\251\277\320k[\277\261\251a\277\004l\353\276Bq\232>\362P\222\276\024\023\212\276\020\350#?\326\207\321?@\035\202?$\243\"@~\r\031@s\226\002@\260\337\373>\372B\310\276\\%h\277Oi\357\276*\001@?\366\307 \277\302\307W\277\000\314\256\2727Hh\276\016\317\233>\274\030_>\374\351\226>,\177&?U\355+?\204\326\232=\2169R=\330L2\276\030\262z\276S\253\272\277\236Q\313\277\215\t\310\277-\345\361\277\265\263\243\277\311\341>\277aX-\277T\274\322\276\314\300\006\277\365\257M\277ZA\351\277 \322\242\276\3509,\277:X\210\277ZM\262\277\025I\260\277Ld\243\277$\321\324\277\271\247\345\277O\357\006\300\204y\026\277\034=\324\277\007l\247\277\320\320\003\300Pq\260\277^y\313\277\360\245\326>\217\322\203\276~\025\254\277\342\016\207\276\344\2657\277\312\247N\277\000\316x\274\242!\014?\210D\325\276rGI\276\277\316\013\277\252A\260\277R\352\274\277v\024\346\277\271\252\321\277\360\235\013\277pA\026\276\327\r\001?\327\372\365>\251\017\210\277\020\202\353=\276{\017?~\327\t<\234\305~\276\247?\246\277\020}\314\276\2479\021\277\333\237\206\277\363+j\277\332b\215\277\370PE\277a\277\326\276\272\351\354\277\265\220\271\277\260:\237\275\022Vp\276f|\020\277\tR\205\277\207\\\024\300l7\352\276\370\211v>\016\215\002>\301\311\n?\022\215\272?\214\362\323\276\262\'\220\277\211\310\001<DHk\2772^Q\277X\177\203\277\273y\230?P}>?\264v\220\276\020\035\265\275\232\037\231\277C`$\277\376\255\253\277\200\254P>\304\240\016>\266\336\326?\366\370\023?A.\006?\327O\341>\276\031{>,\253\237>cp1?V\307\353\276I\0131\277\334$\333\277\354\221\233\277\000\330\346\274#\330\250\277\350X\340\277g\0313\300BP\022\300/\335\215\277\020\326\"\277\240\366}\275\335\0276>\327\222\303>\313\352\204\277U\332\213\277\360\216\t\276g;\215>\245\371\207>RB\365\275\313\245\256\2774{\334\276\335\210\322\277j\3629\277^,\032\277\313\223\271\277\177?\320\277\001\032\201\277\376\211%?\214;\216\276,\323t\277\312(\244\277\356\035\246\277\200\177\016\274\375\322\214?\020]\"=\250\200\344=\203}?=\017\327\033?\322\215\251?q.\260?\020\365\014>\362I\373>\000\306\315\274nc\221?B\032\363?|3L@\361\206f@\216\323\372?k\034\370?vTA?\267\251\026?\337\214\253>\022\250\036?\304\242\215\275K\010\343\274|\221\344>\374\030\356>\311ZV>\017f\271>\266\267(?\022\017\343?`\201\227?I\265j?\237\372!?\334\017K?F\345j?s\337\246?\022Y\336?.\022\246?AQ\320?L\254\357?\032X\255?\374\213\336>J\364\274>\354\255R?|\005\351?\004o\035@q\375\321?\241*\316?o\323\226?\315\345U\2776\366\320\277\222\206r\277F\004\264\277\350\271\201\277-@\222\277&\231\r\277\366\020\214\276\261T\227\277\3540\231\276\306\331\227\276\006\006\005\277s\216\303\276\000\212P<\031bb?C\376\016\277\017)\317\2762\316\007?\240s\026\276\203\242\224?\343\261Q?@Q\246=\027\204]\277j\262\232\277\347O\n\277\374\253\214=Y\013\254\276,\216s>U\023b?FQ\244>B\216g\276\263\236I>\360)&\275\361\301\262>\372J\334>\030\206\\\277\354\0349\300\317hS\300\037@\005\300,M\207\27724\313\276\'\247^\277\014\304t\277\002_\020?\221\343\274>|\3023?\242\257\201?\000K\272?\230\372o?MV\007@\2643\314?p\310\357?\342\220\376?2. ?6\301\202>\210R\311\274\306\322\376\276\010\325`\277R\364\216\277\316{5\277\'t\246\277l\2066\277\200\'\367;\372\362\312>O\003\235>\341O]?=\364)?\355\236\350\277\3214\317\277\346\367\336\277\224\256O\277*\375\324\2778F\022\300\030I\356\277]\305\330\277\000p\014\300(\246G\277\344\'\372>\010\016O\276\262\r\001?\256/(?8C\252\276\216\272\244\275\027pf\275\265#a>\304a\270\276\271\2775?V%W>\245\010\'\276\016\262C>Z\305z=\210LS\276\355\360$\277\232l\306>>a\022>\265\364\343>\275FY\277zP\230\277\r\253)\277\366\3430\276\207\023`?A\324\304?\205>A?\210Z<>\244\211\321>\000wW\275\024\001\304\275\312\307\313\276\020Lj\275\264\341=?\370\241k?\300\031\022\276#\244\346\275\322\3226=\372\321\242\274\020C\320>\232\037\341>V\026\032?\346#O?n\274{?\177>\013?\267\036b>\022\021/?\245E[?\334\374\336?]\346O?\376\362\343?Vr/?\330}\301?:\031\364>h\202\255?2o\331?\013ek?ZB\022?\032\243\241?{M\241?\307\200\277?\014l\206?\210\270\366?\306\211l?D~\216?\331\362[?\374\256\213?\226:v?#\370-?\375\205\016\277\357v\265>I\222\017?\247\250\n?\237\034\223\276\036\306\014\300\343\244E\300\360\201\346\277\314@\206\276\232K\255?\214\323;>\307bN?\r\035=?OoC?\346M\177?\207\026@?\236\362%?I\034\020?\013\265\311?\353\331\305?\370\205G?h\3242?eZ>\277\352\241\277\277\246\276\n\277\341\202\254\277\370@\373\276\340,8\277TI\264\276\350nA=\330!V?\2461o?fY\226?\275\375\234?;\322\363?\"b\246?\271\013o?\271\221\322>4C\331>\232\370\355=\336\343\317\276\376o!\277\220D\252>\354>B\276$\203\220>2\177\372>\360G ?\372\244\344\276\220\332\232\277\3222\020\300l\3026\300(\264q\300z\'>\3006,*\300|1b\300xb_\300B\2757\300\001\2533\300\216\306\"\300\354\362\022\300\006\265\r\300\256\211\016\300\217\020\n\300\220\314\375\2777\356\277\277\000w\351\277\235\302\211?|of?\341\2663?\203\225\214?\350\371\026\276%&\020>\312WG\275\242\274\214\276\330\027m\277\356\033\353\277\276\305\"\300\260n \300*\327\314\277XQ\030\277\200\372\000=\315\r.?\340\226\317\274\333\036\243\276a\014\226\276`\030\361\276aC\225>\230\211`?h7\362?l\365\276?\027.;?\316\201h?\352\023\212>\035\325\212>\366\204J?\034\327Z?ew]\277\022#\212\277\235\t\206\27721L\277ve\212\277c\275\217\277\n\315f\277\360\310l?_S,?\355v\251?,\025{?/\303:?@\\\376>^\376b\277\006\277\315\277\366\203\007\3008\024\304\277\235\232\245\277\307\354C?\310\020\212\276\200@\314;X\333$\277\211\330+\277&m\274\276\000^%\275@].?$\363\315?\315\021\'?\0023a>\000\006\254>\256$o>{\027\016?\027Y\306\276B\0345?\264u\"\277\036W^\276\236\341\327\276/[\245>N\217\034\276\217S\037\276\001\025_\277\352Q\360\277\330\010J\276,\224\355\276^u\267\277l\336\224\277u\231\035\300\276+/\277\222Z\224\276\222\256\230=2\036<?\213K\247?aT\245?\304\310O>\304,\331>\340\347+\274\226\177\211\277\213\207\270\277^!\002\300\274\333\020\300\217\220\223\277\333\035\224\277\277\205\233\277H\200\217\277\034\202c\276\350\322z\277\230c6?\212}T>i,t?\217\361\240?\236\253n?Z\300\203?`\006\270>e0\203\276x\275E>*8??\204\370\226\276\332\207x\276\220(\354\274ys\234?\222\307\016?\306L\\?\260NT?,\320\352?Q\223\002@f\275\"@\007\324\014@\205\303\032@al\022@\030\311\371?\033}\355>\026\"\260?a\364\221?K\362\223?\314\366\272>z\225\007?{\360\007?+\177\274>\312X!\277\000\230\031=\207S\210>~2\323>\264{\342?\213i\023@\305\251 @\372\303\013@\312\240\007@\365\222\373?N\210\366?\306\016\024@\311\317\365?\300\217J@=?\032@\362\256\025@\314y\310\277\026;\251\277Y\312\223\277\303\342\200\277?p\203\277\310:\246\275\337O\334?\216\034=?\224$\346>r\010\014\277\232\013W\277\340\217\304\275\356~*\277|\335]>?\344\253>\033\266f?\327\3072?\3026\343>\210!\206?r\230\263?\271\250\260?\030(\371>\227\257\r?d\216\304>\366\306\037\2773\"\372\277\361\321\272\277N\236\230\277m4\203\277\320\273\023\277\030\002\304\276\000K\311\272\261GM?M\251\t@u\226T@Z\235x@\010b6@\223\320\333?\336y\023@\200K&@\016\014\003@\322\244\013@yw\230?n\231\020@#\234$@\3704Y>v\2679?^\220P?O\320\226\273@\242\313>\341\333\357?$F\223?9I\371>-\303`>\220Gd>\213?t?\331\246\206?\027\333D?!\357\342>h\005E?\341e\235?\017\260\373>\300\376\226?|\201m>SS\225?\014Z\210?J\2320?\260\370J\275\263\346y\277NU\215\277v\r\023\277\371ks\277\200\340M\277\250y\023>\315:\264?\222\272\263?\226\003\220?\230tH?\216B\270>\0007\255?c\254A?\210*\316=\247\226\207>Y]\364=\356\265\257\276\253^\206\277\210\022\200\277\360\2350\277\004\225\220?\004\3568\276\360\212\263\276>\342\037\276\231\260\013?\312\325\217>\272@\325=H\256&\274\237K\031\277\261\001\272>O\354\210\276p\346I\277z\351D\277tsP\277\230\260\236\276\204\017\217\27786J\277>2d\277\264\031\277>\326b\272=\3166\005\277\251`C\277\354\006\211\277\010\031a\277%\326a\277\376\316\303\277\370~@\276\374\277\320>8\222x\275\267\233\273\2764\306\276>\206\222:?\312O%\276\3408\322\273\260A\000\276x\375\341\277\270\010\276\277\356\243\026\277Q\355+?\240\347\214?\310\270\025\276\221\324t\277\266\370\252\277\366\265\013\300\365m\304\277U\325\255\277\302\256\264\277@\034\325\277\372jL\2774\254S>\230}o\27756,\277\014\304\353\277.\214\"\300B\024\236\277X#\005\300_\213\335>\342\241)?\347\267\223>\264(\212?@Ct\275_\027\204\277G\214\r\277^\243\r>\270\"]?\263\275B?\356P\255>M\360\222\276{\217\367\275\r\353\004?\242*\240?\242\324\250?\200Nm?\220%\355?\351\336\306?|\253\343??\036\276?\237\227\031?\310\212\273>\030\3553\2778\256\202=\336\235\034?U\322\244?\310\213\314=\361h,?\330\331\326?\253\345\267?$\tW?|]\027\276%\021\300\277H\334\316\277\000}\177\275@\010\325?\302\374\374>rl%?Q\354\350?|\300\033@\235\344\322?\034\016\360>\232\305W?\320\241\237=\003=\247>\312\251s\276\223t\006>y7\'@M\274-@T@D@\032\366\013?\020\330M>\234\361\261?r\237 ?M\013\031\277\374Ik>\022\263\022?\320\024\371\274\357/\241\277\252\266\027\277\000`\033:\255\266]\277\226d\213\277\300O\255\277]\034\350\277::\365\276\234\240P?\256v,?|\206=\276p\003V=\334\346q\274\\\321\247\277\214S\244\277\200\263\215\275\276\205\200\277]\265\247\276\320\233\242\274\373B\330\276hjF\275\246\373\213=I\347\"?v\362\250\277\204r\357\276\377w\221\277\304G\331\277\032)*\300\300\213#\300\216\306u\277V\242N\277c$\207\2770\"\232\277&ox\277=.\361\2773\252\220\277\246\323\250\277\3328p? U\332<\222rO?\020.I?\300l8<\306\021\274=\3513Q?\300\342\t>\010\323\262\275\332\336\024\277\222G\027>Dw-\277\324\235]>\257\340\246\277\347Z\321\277\r\222\245\277\300\326\311\277\270\nN\2762\352\215\276jy\277\275f\332\366>\324\244f?\264\030d>\202Y*?\210O\212\277\200:\267\273\316\2108\277\027\224\210\277\030w\321\277\360\202\203=\344eB=F\302\212\277\214\302\225\277\014\362\275\277$\301/\300\003@\364\277Uu\330\277\034\253D\277\220\371-?~U\257>\337\213\313?\277\232\000?VK\307>\030\324\301>\270W\207?\335\005_?\320A\245\275D\246\323\275\022\365\255>X\331\354=\330\373\200\2766h$\276\310q?\277L\377\225?\322V\305>\341D\313\276\252|\221\276\202\024\334\276N\2728\277J\036\200\276-\230\\\276\336rg\277\264S\007\300\315@\004\300]^\350\277\230\272\017\2775\210\343\276\317\230\376>\033\371\265>\206K\017?\332\255v\277\333Z\334\276\030\024\230\277&)\273\277\\\032:\277;\335=\277\3423\021\277 \025\217\277z\376\343\277\251\001\307\277\000h\340\277\r\265\257\277t\025\030\3002\230\311\277-\365\307\277F\321\351\277\000\371\345\276\302\246v?nhR?\024\032\357?{\241K?\206W&?\224\212~>\352\030\241\277F.\203\277\217\021Q\277\275\304\265\276\027\"\211\276>;\210?\374@\010?7\323\213\27678\213\276Vb\222>\366D|?\256\'\310?\375\212\320?\264\302\203>\206\304\207>Aiq?\374!\357?\316V\262?\356\233\302?\037\371\005@\200\007%@]&\340?\343\243\233?@\2222\276\022\233\376>]\001&\277\300\216\317\277\240\203G\277_k\026\277\250;^?\030-\366?\200\013\345?\217R\025@\370\2647@V:\t@\253\034\277?\014\360\237?\343xg?\276G\256\276~\365\333\276\315\222\263\277h\251\026\277\350\302P=n\023S>\324\227$?\326\212\323>\302\373\201?l\341\247?\272\267>?\342\211\333>\177q\r>s@\021@r\001\330?\n\317{?M\206\262?\241\302\255?\220\022\350?`u\357>vIK?\304\224_?\207{\210?\264\341\357?\347g\356?}\373&@\003 \272?\201\325\375?b\325\212?\214\210\252?\210\311I?\264\271\201\277\206\017\261>W\347\305?\334\372\205?\006x\264?\n\301\306?\006\365\307\276\352\330\347\276\237\323\365\276Z:\004\277|E.\276\263T\341>\227\023\361\276\2779\274\276\250\2170\275\247\236\000?\364\347f\2773m\213\277\330u\001\276\270\252\372\276(i\003\275\2772\001=^\032\350>\016c\342>\252\271\254>\254j\275\276\243\"\243\277\240\247>\277\001Y\265?\005\311\257?\235@\320\276\236gE\277mo\216\276\237\362\001\277P\261\301\274j\t\225>\253\363)>R\275\346\276\000_;=x\324\014\277=\020\222\277\200\r\003\275 \006\210\2761ZK\276\"e\025\275\"Y\352>H\275\036?\236\307\'\276\253\3313\277\036\\N\277^\273\205\276\374f]\275\206\353\257=1\326\375\277To\036\277j\252\253\276\322x/\277\034A\306\276`)\272<j\206b=S\013]?\323\327\337>\357\364\275?\271\363\264?\214:e>\204\375!?\340\261A<?\225\212>c\313\237>\0042;?P\037\002@\002\324U?\204\205J?}\376\305?Pg)@\026\210\274?\206\245\270?n\237\216?V*{\277\261\266\300\277\213_\"\277\371\3157?:\221\006>,`\372>\364f\021\276\227\376*?\230#\261>\211N\227?\322V\004@\271\350\300?\005c\t@\004Z\310>S\217\213>hKO?\232\203\312?\210F\315?TW\352>\274\230\370\276\'v\211\276\317\2031>\376\367\204\275\317uT?\035\254\225\277#u\316\277X\275\225\277\375E\316\277\\\224\205\277\\\265\300\2760\240Q\277\335\271I\277\212-\222\277\301\361\223\2775D\343\276\005\361 \277\254-x\277\205\365\035\277\352@\220\277\334\350\225\277\265\366*\277\000\"]\277\326:\024\277\327\326\274\277\002ZQ\277\333\"\005\277\241gm?\347\262\311?N\313b\277\304\262\276\277\354\027\022\277\263jg\276/\323\016\277\\\254\232\277\224l\253\277x\347\311\277VB\000\300]\225\255\277\366\232\303\276*\007\300>\334\264\203\277\370\002R>Ks\265>\220\350\003>,\026r>\020\330E?X\026\326=+ +\277\221\036-\277\343c\312\276j\026\250\276Tw\004?\n\333I\277\213e\271\277:\341\254\277\372\tX\277\306\340\253\277\270\030>\277\212\300\240\276\2207\322\276\265B\256\277R1\310\277\311\376\"\300\342\215 \300\2007\261\277\202K\353\276P\250(=\276[\205=\330\305/?\211\234,?8\271\212\277\342h\023\300\365\2141\300}\206@\300N\017\256\277\"q)\277\342\2118?\300\363F=\250\200\223;\232\315\240\276\266\217e\277\300\022w\276\242\277\273\276\356\251\341\277\224\030@\277\276\207\240\277\001\325L\277:Rj\277\210\030\213\275S\331\261\276\250g\230\277M\267\005\3000\371\304\275\322(\030\277\226\006\347\277D\221\214\277\023\200T\277\372?y\277\314 \236>\246}\264?r\306\216\276\316\263\016\277^Yt>\356-\032\277\256\025f\276\006;\030\277\233\2234\277\224>\202\277\310\313\204>p\233\314>\2763!?fC1\277&G\213\277w\372\316\277r\300\347\277\327\277\300\277\332\263\240\277\372\334g\277\372\340q\277\320\'U\277%\260\306\277*\361\365\276\263RW\277|L~\277u\013p>\320!D\277\340\036q\275n\307\220\276\016\372!\277\262;\"\277\270\030<\276\366\245\316=\240\350\351>#\244[>\325\210\230\277\2461\246\276\377B\233\276N\010\022?\336\266L>\t;\225?\212\263\207?^\366j?\230\315\365?\327\\\370?\362b\t@\216\232!@#\211\355?T9\276>\355\331\t?\340\036\r<\005\017\250\277|fG\277 :\n\276\343\370\360\275\036\355\205?\203\226v?\344\246\265>\340^\004\274\212\2721?\374\'A?\360\202\200=\010\263\032\276\233\007\257?C\343\217?CB$\277$\262y\277\236\303\330>\223\277\010?\204\242\313>\262\315\007\276\264z\367<\004\213\230\277B\1776\276F-\321\277\343\251\347\277\233\372\270\277\252}\250\277M9\350\277\367#\316\277I\025Z\277<\232\035\277\250\032\357\277#\247\271\277\362{\364\277\222\'\203\277\374BI\276\3479I?Q\025%?\024I\302\276\310\265a\276\250W\343\276\227\tw\277\356M\201\277\365\000S\277\254a\225>\214\016\231?o(=?\216\204|?\310\375\032\276\312\014\346\275\376\317\017?\220\013\314\274\204\264\223?\340\367[\275\231\313\331\275\203\223\303\276\324\240Q?\262`v>\275\263o?\304}\264\276\252\356\354\276\022\010\340\276\026\337\251\277bq\315\277\330\357\235\277\037\250F\277`(^\277\377\201H\277\246>k\276\303\n\274\277\270~\200\277\256\357\207\277YJ\273\277S(\307\277\356\375g\277\000\230\335<\227\305\216=\020C\177\274\000v\356\276\310\226M\275 y\035\276*{\263\276 \345\337\276\240\344W\276\341\252+>\317\205<?t\000\303>\203\240\321\276<S\216\277\220\037\306\276\352LX\277\256\002\321\277(nj\276\342\332\246\277\311\376H?\022Z\340>rw\264?B\227\t\277\017\226\253>Th\021\277\341>\240\277\334\304\250\277Z\333?\277\206.i\276\353\346\221\277\022:}\277\275\002p\277h\\\231\277\230\302\270\277\007\273\317\277\004\271\021\300Z\026\325\277\030s\031\300hs\351\277@\n\340\277\022\216\007\300\005\214\251\277 \267E\277\006I\207?&\242\307?\211<\213?<w\226>\205x\303\277\245G\030\300\316\017 \300\266\375\233\277\240P\000\277\r\234\225\277\365\307F\277\025\251t\277\302\213U\277\300r\361<\036\237\267\274\330\242\310\277\313h\025\277\302\240\200\277\034\263\025>\240\365\215\276\300#\271\276\022\300\215\276@.c>\225\300\261\276\030<?\276\034\361\235\276|\275\222\276\372\262\332=`}\300<\034\314\253<\265\245\352\274\374\234\033\277\376\326Z\277\206\014\215\276e\246c\277\243\355\313\277\214\276i\277n\327\245\277\260\331,>\n\230\215\276:\001\224>\032\356\330>,]\210\275\033+9=.\3667\2768rB\277\3524\236\277,e\r\276\255c4\276\346\366\311=.;l>\322\020\213?b\220\316?\261\254\036@\320]0?\032\367\256>\362-\013?\212P\300?9}\232?l7\002@\246\371\255?H\017\252>\006\332\204>T\264C?l\307\n?\320\373\375\274)a\343\277N\311\334\2776\245D\277\250$\256\275\252w\007\277\302\002s>\214\203\256<\356\031\304?\270\270\321\276z/\200\276\301\263o\277\303\250L\277\260\372y\275ft\347>\200?\002\274\3421\265\277\204@P\277\360\361R>430=\376\276\202\276\036\032\034?\254\313%>\307X\351>\304O\220= \341O\277\262\311\366\277\362\374\213\277l\313#\277\252\213\317>\204\002H\277\265qw\277\304l\250\277\247\326.\277t\250\371>H\233\275?\204p\204?\002\217\221?\253\326\221?8\377\340?\245R!?\325F\254>\320P\313>\332$\256>\332\222\271?t\345:?i\221\031?\360{h>\226\231\177\277\300F\262\277\3271g\277\307H6\277xk\367\276\226\322W\277l(\200\277\004\022\020?\226\203\223>;-\215\277D\370\315\277\211\002\341\277\002|\237\277L.\r\300\241\206\002\300\202\177\355\277X\347\363\276l\341\361\277\"\002\344\277\334\324\261\277p\333\332\275\227q\031\276\001O\336\276l\2666\276\3071\320>i:\360?j\032\247?\003C~?u\343\362>\240c\023?\260\317\327\275\237\262\343\277\346\013\023\300\034;\332\277\351\303D\277B\302\313>j\234\315=)\2430\276\266\310w\277\200dg<\335\032\306\277\233\301\235\277\350\362\264\277g&\206\277\362`M?\2029j?\250c\277=\357@\244>\014\006\231?\350\024A?b \345>7P\232>\277\037\t?\235\374D?p\007\316\276\333\343\177?V\317\303?F\221\251?\202\350|?` \310?\254\210\201?[8\227?\264\305\316?r\263\017@Gn\373?\004\323\350?\263\277\232?,\004S?\276\254L?\340\206-?\233\245B\277\222AP\276\221;\206\277\314B7>\330]\245>\3404q?\330y ?>\3158\277Q^\037\277\215\017\251\277\032\227\334\276XN\214\277\005S\215\277\340\036\312\274&[\024\277\336P*\276\010\r\"=\232\013$>\276\243\354>\274\333I?\204\210\006?\320(\352<d\332\225\275k)\274\277\\\223 \300b\212\257\277\323\322\205\277\326g\036\277\007\366\317\277x$v\277\253 \267\276\'\271\321>\271:\220\276\013\016\022\277.(\256\276\020\016w\275\363L\245\277u\246\206\277 \211f\277\034ff\277h\211\225\2776S\251\277H7\350\277L\315\214\277\323\361Z\277\265\216{\277\030,\223\277\010k\264\277\2200\252\276N\351\003>\200\366S\277\260\205h>\203S.?\316]\204?\326+\r@\033!\360?\020)\310=\261\347\034?\215/\025?W\362\370\276`.e>\n\314\270\275\370\016c\276\361\3355\277R\305\023\276\314\030\222>\270\026\235\274\242\3330\277\367\007\235\277\311x2\277\026\361\013\277\023>\336\276\200\014\321;\362^i?\360L\240=\355\210\016?z/#?\207dq?\310P\207?\331\277\314?z\362+@\215`\237? \343\204=l\250\350=\024\326Z\276\334a$\277|c\257\277N\203\352\277\335d\007\300\2736C\277\250\034\200\277\212\371&\277\251\230y\277\230|\235>?-\214?\203\255\034@\337]/@\256@\024@\201u\023@xl\004@\365\022??\220.\214?h}\207=\234I\207?\026\276\217?\020U\034\277\276\331\303\277\006\234x\277PT\353\275\222c\316>\244i\307=<XP\276\230\234\026?\253\323\017?\274\300q\277,\216\207\277\177\0040\277\331\032\214\276\2522\240\276\330T\210\274NU\327>\372\177\225?\002f0?`\266\276=\010sa<\300\n2?=\262\347>\273\214\315?\302U\320?0t\332?\247\266\257?\231\301\006@G\020>@\254|\376?\233\310R?\3116\254?\262\231h?\234\213\273?4E\207?\2668\262?f6\277?\211\371\252?N\232\376>|\032\177?\242\234\277?\346\260r?\010z\301?\352\262\344?\316)\301?\030\"+>\273\247,\277\256o\231\277\3074%?\201#\004@@\313r>\356q8>\307\004\252\276\354\2060>4`\213\277\224\354`\277\024\322\204>\360W_=\347\370\022\277\342\201\271\276@k\307\276\366\313\003?\020\276\324?(\256t?M\236\020@ur7@m\010\'@\212x\267?\3767m?@\364\033<<\277\201\276\026\241\245\277\200\333\032\275\266\210\226\275\363\2041\277b(3?p\002N\2762y\251?\334Q\254>\270\345,\276\2153H\277\\\312Q\277)\317T?\223\330n?\341\227 ?b\247b?\010\nS?\210\373\272?\200\252\226?W\372\315?\021\317e?h\342\364?\374Z\200?\264r\233?Z\250\234?\310\252W>\212\025\251>\"OJ\277\004\345\017\277n\266\206\277G\200\\\277\271\270\017\277%\335\246>E\023V>t\005\202?\323\244p?\326\314\203?\316_2?\234\314\007@p\206\274?pA\002@\276!+?\022Vt?\036*\320?\365\\\035@\000\316\013@\236\2009@\353\335\020@5\223\020@\3174\343?3\014\317?({\211?\324\364\t>T$<\2773$\306\276m\2722\277\036\334p\277_\340\001\277k\274\225\277&}\331\277\230\261\274\276me\037?\3553\273?\220\225\343>\210\252\327>>h\351>g[\223?.\352Z?\364\006\">h\n#>\221\306\014>RJ1\275\262\201\201\275\340\034\312\277\352\210\022\300(zK?\177i\023?<\370\303?s\252\221?\243j\365?d\224\231?@3e\275\215(\027?\232\310\275?gG\245?+<>?\\\332\240?`_.?V\031\207?0\206\216\275\2712\274\276:Z-\277,\341\221?\200\355\203\275\233\\\277\274, 3?\305\210\211?\343\251K?R\2002?]\317d?\210\242\221\276\220\3365?\"\354\021@%\227\031@\371Q\321?\246#\265>\0344\n?/\205\202>\376,\252\276RJB\277H\363\r\277?_k\276j\345\300? \243\370=\026\240*\276\302\260X\277 VU\275\352\265\372>\234\207\340>\344sX\276\2373.\276g\301\224\277sb\256\277\314\330p>\344\223+\277\330\247\350\277-\247\021\300K8\262\277\'l\323\277\206\376\021\300\203\271\242\277\251\205\310\277\022M%\300s\303[\300\240j\267\277\034\260S\277\247{\247\276\260w\270\274\271[\367\277&\007\255\277\347\034;\277\025\336\247\277\226r\206\277\240\316\352\277\203A\023\300\350n\370\2777\347\250\277\2547\324\277\217\341\342\277\244\374\025\300\254F\013\300\230\202z\277\310O\244\277\222\362p?\366\002%?\367\002\220?2\013\201?\255|r?\033\241~\277>Q\265\277Vu\217\277\004\275\321\276E\034e\277\'7\226\277\374\352\306\277r6F\277\204\275\t>K\354\331\276z\026\004\277\234\366\n\2772!T\277\033\373\203?\321\255\260>\370W%?\330A\233=`\366\014=J\211\010?N\342\242>\362\307\007\277\360\334\001\275<*\350>`\n\353>C?\276\27686\203\275\226\253\206\276\305Y@?\310\374}\27606e?\207&\005@\021h\026@\337\3602@\214\360C@\235\376V@ZU\354?\001\014\336?\243\302\033\277\326g\337\276\214,\241\276\242\211\302\275\002\340_\277\030D\236\276*\0047\277\331A\366\276\357\001\243>Xa5?\273\350]?\200i\357;\362,\202\277\000\363\004<\017\002\314\277k\203\276\277\3350\247\277\346\003\202\276\206\305n\277\322%\215>\375D\344=Wx\362>\261\003\373>KQ4?V\202o\277\335\255\354\277}\331\333\277\306\207\306\276X\341P\277\356\211\364\277\217h\342\277>_!\277\n\323\225?7\350{?\234]\243?\230\3242@se\230?\033\371/?\300\324\227?&\373\307?M\351\207?@\335;<i^Y>`\325k?\215_\\?n=J?\005\302\321>\310\254W>\353\322s?\033\362=?R\245\300?l|\002@\035\033p?~\303\240?\3269\251?\210\325\231?\2541w>{\233\360\277\002#\t\300\336\267\030\3006\355\005\300z\224\366\277T/\247\277\326L>\300C(\200\277\210I\311\276\353Bw\277O$\246\276\362\373\336\276f\024@\277\000YZ\276\326\262c\276\276V%?\277_\007?@\214\"\276F\251\212=a\202%?ub\002?\2544K?\362O\302>^\341a>s\342\n?\332\272\377>Y\252\030?\220X\002=\252R\342>\304\224\352=\271P7\277z\037\213\277\014\024L>)M9\276\344\254z\275\340(\342=Sx\221?\302\215\361?\272\343(?\013\352\244?\\\224\277?\272\214\354?\242<\231?1\230\212?\356>g?F\226\202?\206\020\341>h<)?\314>\221?\330U,\276V\312\326>\344[\014>\215\027\262\277a\306\005\277\024\247R\276\022\360<\275y\363o>\003\024)\276\321\222\325?\226|\256?\340Z1>\001\350v\277=\203\n\300A\302Z\277\0008\252\275|\037\364\276\230\241C\277L\017\331\277\270>\021\277\324h\240>j\2259\276\314\217\336=\306\225T\276\330\243\351>/\356S?{\273e?\305\3562?\263\2405?\370I\352\275d\252X\275l\030e?\336\305\333\276\026\177\273\277!\263\331\277w\223-\277\214+9>\274\265\023\275\004\220\234?\346\324\273>\326\351\033\276\205HR?\215\032\r?\373\340\213\277|G\031>f\212g?\370\314\341?\006I}?\361)\267>\304\227\221?\013\305\336?>\370\323>\210\250\230?nS\276?,(X? @_=Y\023\246\276\220\210\004\277r\230\026>\001\'G\277D\360\337\277\340\346s\277g{\260\277K~\210\277\000\343\334\277\020L\207\276\245zx\277\320\343\r\300<\002\017\277\353/\002?\260\321i?\006l\322?$\317\243?v\377\275>\035\247y?\240.2?z\006\317>\010\035\036?\366\266\227?@\217\223=\363\313=\277.TU\277\225d\202\276\365\230\032\277\211\210\037?\206\002[?L}\216?\373\275S?\342\262~?\214\322\"@\016_\204?2\235\266?\242\261\006@\237G\305?\202?\263>\244\264\366>\376#G?\300\212&\2757\231\027\277\320\"\250\274B\363]\277W\264\350\277\014\227\310\277d1/\300toT\300\32375\300\310\211\356\277J\210\025\300)\246\020\300\245\232\365\277\243\357}\277\370\034\324=o\255/\277\362\315\206\277\3140\037\276\266\236\034\277\314\201\236\276=/\262\277\316NE\277Y\2224?`\261\206>\317\341\364?\004G\003@R\257\020?\273<\004\277)\352f\277\350\007\226=\203lV=\"\351\022?\277\346\226>+\267\373>}\211\311>@\027\335;n\225\004\276B\265H\277,C\263\277\214\230\371\277\221\223\264\277\312\275\362\277\324\312\273\276{\024$\300KWV\300\354\205\331\277\337\002S\277X\022\234\275P\207\223>`O\377<\232N#\277\024Hw>\210^[>\014\301\231\276e\201\014\277_\004\252\277\"\355\003\300W+\005\300e\234\022\300\2400 \300d\330\013\300T\376p\277\267\307j\277A\214\224\277/\257\220\277\304\316\213\277z\311\237\277\035\207d\2772\263\206\277`\236\327=\003\217Z?\303W\257?\374\275\320?\243\364\277?\302\375\335?\266\210B?\376%\360>\322\237\240>\272\366\375>\0374\236>\206d\272>\037\035\031?l4\307>\217\261\265?\227\245\001@HKI?W\311\r@=7\377?\262K\204?2\355\317>\222E;\276!\240\200\277@\rL=\204\274\371>3\353\207>\"\276:?\3003C>H\004\251?\202\226\235?\204=\037?9S\220?\265[\037?\274q\223?\324\313\t?5\333\036?\022\322F?\340G\235?&\332\205?\277\225\212?\235A\000@GF\271?\356\224\220?\310\0256>\374\246 ?\212\256\271>\216\250\307>z\031\305?`[\">\0052d?H4\377=B\204)?^\036\214\276\322\025!?p\211_?\210R\333\275\333l$\277LN\252\275Jn\r?\206o\331>\031\213\225?6\276|?\260\352$>E\031\036>\344\351,?\362h\227?\333\205b\277\255Z\003?\236y\203>\036MN\277\2504\251>\000\355\272\272\257\363\323\275T+\276\276x\254\250\275P\234b>\272\266*>h|a\275\327\221d\277\000\257\236=p\314\356\276JZv\277\306y;\277u\357\033\277\237\217\232\277`\356|\275\203r\342>>\305\t\2775\327\227?\027\240X?~P\021?\227@R\277\354\230T\277\232\214\226\277\215#\331\277jl\004\300\0101\215\277\272\361\233>\206TE?\300^\276=\304\356v\277\020M\373\276\330 \022?T\364@\277\364nA\277\000I\t?\2715\307><\n\361>\1776\210?\230t\t?\266\221F?\312\207$?V\264\002\276\320\266\250\275\366f\347?\210\343\260?\364w\374>\210\234p=(\357U\277F\237\246\277\016\2644\277\260B\037><\231\246>A\371\036?x~\221>0\305\013?@\302`?i~9?\373\222\204?\344F\212?&\267\201?\225\257\221?\330\203\271?\226\236\000@\240\227\020@\240\024\010@\032p\217?\366\207u\277\336\2263\277Vc\333\277\225\007\307\277\256#\363\277\274\317\376\277\352\350\227\277\272\326\211\277\354\356\230\277\\\222\316\276\207\213\245\276\224:\361\276\357{\204\276\0063\336\277\276m\333\277@\245\377\277C\226 \300\342\332\r\300\272\037\360\277\247I\352\277\336i\200\277z8\240\277\030\005\027\277\034h\275\276\305\351\016\300\212:\240\277\210F.\276U`\035?\026\375\251?\351\352o?\361\306\265?\036`2?aw\000\277\323\276\211?Z\260!?\252\204>>_\220\237\277\253\346\306\277\366{?\277\022\007U\277\304\030U>\334\201,\277\266\3745\277\307\336\326\2771\376\257\277\204Z\035\277\346\250\217\277\326\271\225?$X\243?B)A?1\242\025?\346%\246\276\003\373\226>\200\222V\273\365fX?\305\021g?\240F4\275\310\031\342>\302\215s?g\3111?\007tp?\317\270\362>W\037\221>s\023\215\277\217r\220\277\226\361\235\277a\271C\277\022\306\036\276;6\233\277\363p\004?\260\001\216?+\"6\277\027\323(?|\342\206=\246\256\033>\264\033\305>o\316\337\276\030\005\237\277\317*\303\277\270\026\\\2772\212\345\276:C\204\277\337\344\035\300\342:a\300\277\312\206\300\330T4\3006\236\330\2778\034\337\277\020\271\r\277\350\272Y\2772\261\206?\342c\203>\007\367\007?\245\275N?t\260\001??L\207>\212\211\244\275=\234\252?R\367\350?\232t\022@\333(\334?e\317\024@\0201l@\335\347\247?`\205\364?@\226\232?\340d\214?\026Va?\300\331]\276\340\360`?\210\365G?\004E\245?\354@\034?\300\221@?\357\014\017?\232\235@?\300\213\'?\324\252\304>8\344\305\275\366g\323?\010\363\014\277\222\371\373\276\nIf\277!-\205\277\210R:\277K)\025\277\222{7\277Z\253[\276\352\262\332>\216(\014\277\344\246\256\277s\023\242\277\246W\343\277\3554$\300\t\261\025\300\300\230\346\277\026\001\244\277&S\213\276\304K\035\277\003})\277\242\014\235\277hQ\202\276\343\033Z\277\031\351\021@\344\214\326?\'\306\262?\030\037\341>\030\235F?\\\223D?\255S#?\010\240\270?SM\324?\344\232\225>\030h\034\276\325\260\204>\311!\274\276\202W\260\277D\"t\2768\013\366<F\217C>\231\373\003\276\036D\241?iK\203?s<\351?\274\r\244?\010\260\247?\000\002\210?\206\263u\276R\255k?h\330\376>\332\203\227?\2402\270?d\226\324?\243O\351?\033\350\n@\262\211\002@\234\371\021@\233\333\376?\227\364C?\330P??\210\226\216>nF3\277HA\030\277\3743\217\276 !\253\277!\270\222\277\262cC\277\223\310_\277[\'W\277\2376I\277\235\235]\277\234\317\363>\250\275g?q`\252?@\240\037?\342\237Q?\003x\273?\373\002\242?:Mu?=\030\345?\004\343\342?\036\240\221?\346i\032?-\321\216\276@\004\010\277F}\177\277\262\215e\277\274\245\001>\252\204=\277\252\303\370>n\035\256?!\035\336?\006R\226?Y\315\255?(\367\020@\213\017Y\277\274\314b>\366\376\216?ml\226?\307\220\267?D\216\037@?W\273?\213m\306?b\243\362>M\210V?\330\304\020?\226\214\244?v,\223?\202)\260\276o\313h\277\256\322\310\277\017\326\205\277N]%\277\322Gr\277c\226\233\277\224\364\266\2767Dr\276N\267\343\276.\217\033>\346f\244>\254\225Z\277\031\317\202\277\217g\313\276\316C\275\277\036\022\242\277z\331\r\277~\336\215\276\235a-><\261\033@\352 \367?\237\267\005@\346\320\n@\247k\360?\224\211\355?\230\332u?\034V\013@\275\\\254?\206;\226?\365\342*?\010\032\341?\354;\031?v\205\037?1\336\017?\n\3654?IJ\370>@\024\375>\024\244\\?\330\001_\276l\231\023\277KG\314\277wI\235\277uM\227\277\335\355\201\277\0168\226\277\372\025a\277\350\220\272\277\004Oa\277\345D\226\277\206\353\244\277\370\316\325\277\261\241\021\277\222EZ\277\270c\271\277\353\303\231\277\337k\333\277@\250\364\277\032\233\002\300\014\334\326\2764p\216\277\300\177\224>\330g\316?\320l0>n\016\002\277\226F\217\276\347f\213\276,;_\277\270X\350\276/\353\216?z\234.?\300\237;<x\034t\277\364\354\253\277\2568\265\277\022\257\032\277\0160\220\276L\277\030\277\230\t\266\275\347\303\317\276<q0\276\310\255#\277\236<\'\277~\247\005\275\376\322E\277\005K<?&~\261\276$\324\027\275\230&\036;\014\305\n?\376K\217?\235\345\032\277n\023\r\277\210\204\013>_\201\353>\221\302\226\276\265\311\032\277\360\306u\275%\254\322>\200\331\243<\335 \003?\230\016\034=\301\301\213\276d\"\030?\374>\204\277\200\366\350\277|\211\221\277|\256\341\277\340\032\323\275U5I?\256t\256?I,\013?\332\312C>\361\000\330>\360U\202?\336<\207>X\264p?-4\022@\273E\374?v\247\002@\020\357\334?\270x\252?.\273\256?\274k\377\276\254 \252\277\205\005\240\277\365e\371\277\316\006\233\277\254}\230\277f\365\207\277\026\377_\277\370q\264\276\350\351\241\277\001\351\023\300\360G\267\277\010\276\364\277\014\022\345\277\006\243\344\277X\351\250\277x\032\314\277\346&\007\277\334\026)\276t \310\276\200d\256\273\324\214\027\277A\027*\277\276\336\026\277\0200\355\275\242\306=?\365D\216>S\240\273>\254\271J\277-\226\300\276\276\354\254\277R\260\320\277f_\224\277\300;9\275\\~\250\274=m\364>p\271\231\275\230\211\316\276\n\030\202>\206 k\277\025,\312\2770\224E\277\0343\302\277\004\370\332\277\221L\262\277\311W\363\277)@\271\2779\350\255\277r\n\030\300\322E\010\300Z\306\032\300W\363\'\300<I\235\277\375R\220\277w\215p\277\246\205\241\277\352\247\237?\022U\023@Z\211@@\020\275v@k\277m@\010\235X@4\2460@y\322\013@\224\016\027@:f7?\022lC?\317\205&\277S~\363\276I3\263\276\2607\371\275zZ\325\275\370\211\024?\325 \220>\326M\037\277\330\336\322\277\215g\267\277\227\213n\277@@\261<\364vZ\276\303\0146\277\t\332\263\277E8\360\277Mv\234\277~\226\276\277-:\001\300\030t\323\277\263+1\277\360\313s>\316\223\366\2768\360e\275\024A\261>\314a\241?\036\307\005@\210v\204?zO\356?f\230\035@\315\375\024@f\234\244?\000\210N\272\346,J\276\023\225Y\277>p\214>\013\317\201>>\251\375=\322\224\331>\344`\025\277\340\234\224\274\320>\255\276h\026#\277H8\320=8\2435?l\225\300?u\352\207?\340c\013@<\177<@\0324)@\241 \373?\350\362\002>S$\301?\255\\*?\025\004\216>T\010\336>\220\225d?\356\010S?5\ng?\021\324\002?\307\002\021?\211\222t?\"5\213>2\004\234?\251\276_?\270\266 ?\020\361\376>\244\304\212?\344\343a>\036\205\374>\n\356\326\276IA\024\276 \265\236={jf\277 \271\033\276\036E\013=\241\211\340\276\260\310.=*6\317\276\021\257\322\276\373H\234\276\243\026\226?\020\211`?I\313\271>\331K\213\276 8\344\275\371\r\371>\336!\037\276I\241\340\276\321_\237\277Q:b\277\346\366\246\277\245U1\277\375\211\004\300hp\313\277\216\004]\277\264_\006\277\366\3521?\321\371d?\020o-\275\222\027\360\275^\346\250\276A:\025\277\\&\361\2760\332\243\276\033\220\224\276\353\232\344\275K{r>\262\036\201?\235\334F?\311:\001@\300\242\316?\262L\311?\340\356\000@V\2066@\023\227\021@\240\023\030?N\373\332>\021\304&>AW\006\276\353\001r\277\360\255\215=\304F\320\2762e\306\276\021+\336>\230:\344?\301\312\264?\3007\017\277\220\2136\277v\000;?\204Kb?\256\247e?@mE>\331\266\224\274 \302\231\276\246\266\010\277\330\352\025=B\310`\277\233P\256\276\254\303\'?\232\213\207\276\363\303)?\3645f?h>(?\013\330\211>j\316\366>\271.\320?+\221\"?\031\r\361?\ng\317?\210\363\267>\311\341<?\372Ff?\270\333.?\216\347\221?\333W\246?\360\275\305>n^P?\242\2572?\252\"W?8l\205?]\030\305?8\177\322?S\026\001@u\177\244?\034\313\341\276<\320\227=\206>%\277\350\320T\275\374\261\241\276\323S\'?\234\001K\276\316)\235\277\334V\214\277y\333=\277\000\223\307\276\245/\374>\034\355v?\n\346\226\276w\277%\276\326\205N\275N\211\324\277@\360\364\277\254\235\002\300\304\344\367\277><N\277\370\214\341\277\335p\306\277\330\217\246\277\034\366\253\277;\247\225\277L3\313\277\274M\237\277\234)\031\276\314Uk\277\200e\222\273\253hs?plM?\320\305\340?$\370\034@\215\257\337?$\013\374>Z!\255?q\272\331?v\236\201?\227\032\252?\340\343\251\275s\014\254>\255O\254\276\215\251\327>\372\003\331?f\2523?\340\355\313<\toV\277\006\307A\277\266\350\327\276\326\337y\277f\371\272\277\362\324\322\277\006n\343\277j;H\300`\022\025\300(A\267\277\007\201\337\277\007O\271\277\330\200\005>~|]=\302O\331>x\t\020?eW;?MEN?\000\014\207=\350\2151\277\330:\016\277\225\336Y\277^\303\263>*\003\031?\331\202\244>\332#\031\276\353\017\240\276\00066\275c\022\017?\255\305\367>\232\220\206\276&\354\227=\354\307\270\276Eh\266\276L\273,\277&\372\025?\334o\224=S\2404\276s\376N\277\204\232\247\277\266U\211\276`\222\220\276J\210+?\264qe\276\364M\370\275\300\332)\277n\223\352\276\273\006\233\2776-\271\277\361\351\325\277\231\270\t\300\274\376u\277x\311R\276\177/:?\266\264\260?v\246\005@V\035\t@(S\222?\010\207\377\275\251N\334\277\250\354\010\300\300z=\300B\360\016\300\225\013\311\277{\021s?\323&\267?\242c\016?v\322\206\2770h\221\276\364\017;\277\332\024\331\277\305L%\300\360%q\2777%\217\277:\2735?H\300]?\221\331\002?IG6?>\321\263?|\267\214?\3571\246?\376\267\322?\025\214\t@U\211\346?\007\377\222?LGQ>O\0225>\323*N?]\204\014\276\323\"\337\275\213\210,? P>?\004A\342?8\020\264>(\230b\276\3274\004\277\240\333\354\275\234\306\203?\330\017\347>\326rC>\016\022\302\276\220\364\001?_\335\004?\340-\204?\316\007\217?\257\355\351>\273e\333?a8\001?O@\215?\276\214X?`\006\250<\367\307\335\276\256\252\370\275<\333\246>[\2314\277<\345\276\275\221\221\341\276\244\306\006\277\240\312\314\276\240\027\215\277\332\'\252\276\312\215\233\277\217\344\245\277\326\277\253\276\220\250\264=\236\220\252?\254F\227?f\306\007@\340\016\003@\372\360\033@f\327L@\032\230<@,\363[?\021\353\002@x\351\264?`\236\356?\337\366\252?D\354\332?\022N!@xU8?dy\207?\200I\201\274\026M\271\276`?\273=\302\346:>\032aN?\220\0217=\225\006\036?\365\231\316>\255\010\313\276\336I\311\276\254+\037\277\356#\306\276\267\252\270?\232\323\202?~`\213?\274\327t>#\000\202\2766v\222>@@2?\227\346\313\276!\360\251\276\200\0256;\031\352\261<G\"\251<\330\321\366\276\371\200\027\277&8\311\277L\321q\277\366:\000\277\274\215\330\275 \020\317;\256\362\306\274\326\3514<\356\036\357\275Pr\366<\320-.?\020\\d?\320\014\312>DM\203?\277/\255>.\r\370>\2136\037?^{\033?\342\203\220\277d\016\211>v\233h?F\203F?\020+,\275\303#\315\276\366o\326\275\345w\204>\210\\\036\277\030\t>\277<\372\r\277\344KA\277H\251\372\275Ao\236\276\202\360\212>l\025\036>\333\331\303\276y\243\207\277\352\314P\277\240\230\331\277\334r\010\300\362Z\272\277\243<\030\300X]\225\277X\266\252\277Z\343\225\277\233Q*\277\034YG\276\241f5\276\3777\247?\022HT?\200=\227<\t\332\210\276qH\311\275\010\351\262>*\274h? &8>\250(\r?]\244\000?\0308\331\276\260Zb\275\237SY?\360B\021>\370I\237\276x^\t=Fm\223\277a\177\206\277\325\351\257\276\204\016@\277\273\360\270\277\267\343\260\277\000@M>\244d\304\276\024dX>H\362\363>\246\251\016?\240\215\020\277\320\371$=a\247\272\277\377\002\264\277<\225\202\277G\2063?\310t\t\276C\037\300\276\226\0102\277\347\302\353\276\036~\250\277\313\021D\277$N\305\277\244\203\347\277^\374I\277\346\026*?\336<\004\300\371\331\252\277\212\276\302\276T\310\302>`\252\210=#\251\341?\324\215\354?~\261\025@$\310\202?\240x\261>@\307\246?\302\323\371>\000\373\275\272kU\\>\344\376\243>6h\224\277`\024\254\277.Um\277\340\026\357\276\260\005[\277\354\363\271>\334\202j?\206\223J?\230\255\224?\\\251\222\277b\300\373>\270\030a?\020Y\303=\016\254\303=H\330\034?+\362o?\034\037{\276~@\253?\334\250\306?\006\240h?\006d\r?\323V\352? \325\322?t\307\336?N\010\017@9\314\014@\007^\004@\016\210\301?<\221\365?d\342\037@+\206\312?\314\314\246?\275B`?\314\314\006\300\217\305\357\277\000Y\310\276\005\002\347>\r;\005?C\335\327?\330\314\373?p\004\333?\\\024\244?D\326)?eq\217?\222\273\320>\320\031\326?>\254\244?\014\334\236\276$F\365=`M\244\277\323\024\240\277\322\271\227\277\204\251\245\277\326\340\033\277\213\364\321\277q\3420\277ZW\232\277\235b\007@\343\344\262?Ph\t@\305n\271?\033\001t?yN\225?n\200\'@4P\002@\031/\222?Ek\351>\261\037\362\276\010,\037=\006\250\201\275\347!\340\276\355\351\246\277\324\275\210\277\334\354?\276/J#\276Q\025\026\276\000:\025\272\212\346\301>\006H\245>\244P\177\277gc\221\277l8\307?\t\026f?\024]b\276K\346\237\276\361s\206\277\231\024\201\277\014K\241\277\376\221\247\277^\244t\277b\317a\277+\206\352\277\016\r\253\277\020\206\224\275\206\2578\277P\245\'>\005>\245\277\372Z\365\276r\242L\277\241K\362\277\250\231\256\276d\342\024\277\022z\251\277{\305\305\277\212\267\225\276\247x\277>\276\307\t\276\311vc>\3404]\275 \006\306:\31477\277\275\3461\277\021\301\037\277u\370\207\277T\177l\277\275\255=\277\240\337\'\276\2670\321\276\272\001B?\250\025\032?\315\314\320?\232~`@\327Q+@[\271\'@\257|;@\010P\r@\030\014~?.\212\004?\371\324\212?\206\226\010?PU\327>\264\334\026?\360\006\307\275\022\260\327=\373)\203>\340\231\027\275F\033\003\277\366k\203\277bXl\277w\247=\277G\2322\300`Fh\277\302\354\211\277\024\375\230\277\333\027\252\277(%\334\277n\322\240\277\356\340\320\276\376\340\377\2765\374\245\277\276y\037\300P\351\013\300i\323\026\300\277g\262\276\344r:\277\364]0\276\210Fu?J&:?\271\333\037?x\202\360>\273\014;?\364Bp\276\327lQ\277\034\250:\277\226\273\200\2770\361\243>\220\220\217\276\207\364\177\276-\372Q\277\360\333\031\277\304\344c\2760\220\036=\316;<?\350\307\225\276o\323\267\277\365\277\302\277\354\264p\277X\204C?\326(=?\204\200z>\n\316\022\277J.\212\276\276\200\020?X\0161\277\270\236~\277`\325\221=gt\214\276\364\221\021\277>\361\311\276_\232\000\277>(\314\276Fu$>\324\034\364>:4\346>\330\203\'?06\031\275\302\214\253\275V\035\206\276\000\321\226\274L\210\212\277\354\'{\277e\346\350\276\336|u\277\354\317\'\277i\222\230\276\250%\217\274\352M\004?\204L\301>\275\364\301\276/(\020\300\034\252\252\277\010\301\341\277\304Xg\277\'k\226\277\260\260\213>\325\357\304\27605%?\342\351\243?\265:\261?J\373J?\255\321D?U\235\005?\271M\n\277\310\220\341=zc\233\276\202\351>\277\2432\254\276K6c\277\326\034\231\277\346\241\316\277\327\003>\277\314\021_\277\255Y\235\276{\337\204\276\274\3661\276(,\207?~Y\362\276nJ\307\276\2136\365>x\244\004=:NG\277\000\314#;\247\216\222>F\274\353?\340q1\276\275\305\232?\307\317\361?\336\035\311?2k\347?e\016?\275Q\231-\275\273:\251\276\232\232I\276k\221\270\277\037\351\267\277_}\005\300?\264\256\277\376\375\016\300\345\310\333\277+q\250\277B\014D\277\347\266\247\277\272\264\245\277\227J\341\277z\252\357\277$\334\321>\250\026\203\276\273/\232>\270\002\346\276\364q\211\275^|K>\"\232a>\312;\226\2767\325\271\277\374\311\231\277r\r^\277\324\3145>t\2466\275!\202\220?\232\300r?H\0270>M\204\225?\256UJ?\372\037\315>\266*n\277\204]\017\277/\346\345>\346\317\214>\2128\245\275\007b\203\277\\\257\030\277\311\244\264\276\274\232\343=\321\320\002?\323b#?\206,\261?\200\314O\275\001~\204\277\251\211i\277\014\301R\276\027k\027\276I/+?\2000\346\275w\222\342>\252\375??\200\033\315<\251k\273\276\340\356\t\277\364\201\367\276\322\r\036\277\340\210\332>j\261~?\315\263\220?\351\2228@\334\217\206?\372\334\211?NF\233?\211\344\261?\346\031J?\036\270\231?3\266<?H\315\321<\370y\240\276\372\230I\277F\212\365\277\\\356\271\277]\243\204\277\302\314\254\277\321\327\211\277\021\252\357\277(I\026\3001\217\323\2770\344\017>\033\013\215\275 \237\016\277\224\342\303?J\336\300>8\177,?\337n\320?\n;$@\256\254\251?@\233\000@@w\312=\254\016\210\277\003T\235\277\235\000\323\2761z@\276~\355\311>\370M\263>\334\357\210?\230l\r>\257J^\276\030f\251>\272\210=?\014:Z?\016E\215?\310p\271?\000?\374<\277\345y>YM\n?\314,\321>\177\217\016?\234\\\371>0\370\274=\t-\033?SK\215?\024vv?s\'I?\205d\211?,n,>\312\341\376>1\037\010?X\236\201\275bM\353>\021}\334>y3\345>Trj?\352>\366?\000\347\266?^C\013@\214\217.@H\020%@\352\224\037@\340\032\n@\342\300\323?K\203-@\256pf@\231\323\"@\2544\001@[\354g?}\026;?\3303\275\276\342\235X\277\340\276\037@/\355\037@\314\274\035@Bl\370?2\300\030@\264\216\327?\204b\016@\243Y\306?\030P\323>\300\203\317\276\206\223|?_>\364>\250\026\001>\031\341\304>\354VP?\311\007\036?\314\006_?\256\000\257?\207\313\002@\245]\246?B\203\342?\364\021\327?\003e\301?\251\033\305?\346i\301\276/\027\362>\211=Y?\2778\317>\010\206\001>\200#\352?\242\272\330?s\024\245?\366\302\227?0\354\250?\264\034\264>\007B\274\277!M\252\277\250\207\357\276.w\363>6>|?\356\026\356?B\257\036@\334\250K@xR\n@\270\270(@\327\252%@~\003\320?\345\307I?\203\227\241>\026X\003?\2422\224>^\244\342>\010\266\225\275 K)\277\210r\335=\017\307\330\276\3624Z?\221\267\231?\216\026\314?g\207\362?r;\021@\272\035\020@\257\006\222?\270\205i?o.\314>8Cn\277j\343\246>\262\240\305>\260\215Q>4\010\372\276\344\220\202\277\325 ,\300\256S\365?\rG\017@\355LM?\312\342\335?\314s\317>\313\306/?\276\346%>\230\364\331>;\3631?.\0369?\024\376\275?r\367\360>)s\272\276\231\033\"\277Tk\372\276\232W\275\276\274\375x\277\340\373z\277\340\271A>\324\t\207\277\360\256n=\250\3612?\006Lu\277\212@,\277L\357\251\277\366p\327\277K y\277\262\224\005\277\221\301\010\277\353\225\270\277\306\260\310\2776P\002\300\223*\350\277\"\300\261\277\327\304\242\277>F\253\276\013\271+\276\032\033:?\332\311\260>\2243\025\2763:~\277\342\230R\277u\372\203\277\2140\316\277\357M\255\277\232}\317\276\311T\355>\347Y\253?\0360\325\276\201y\333\277>\256\263\277\373\261\257\277\370wo\277\351dR?\252\036\255\276\362B\243\277\337\020\215\277\250\206-\276\372\314\202\276\300k+?\017\336\342?\300\017.@\242\370\356?d\226]?\340\224M=\364\362\247?vo\222>\275\021v>g\206\242\277\203H\214\277\376\037\303\277@\305\244\274\002\343d\277\273\2316\277\204\225\321\277S0\255\277\233\316+\300\375\314\035\300\221\023\004\300\010\357\037\277<\210\232\276p\364\273<0\275\316;\021MX\277\3349\224\277\200^S?\216\032\302\276\234\256\215=\206\376\001\277\223\005\202\277\242[\003\277\333\024\003\277R\217\243\277\326,\271\276\336\366\204?\026\353a?\343\202\310\277X\010\326>\211:\255>\216\252Y?bw\201?\027\325T?z\342j?\366\360\223?3@\207?P\2700?`\215:\275\303\001\007\300\321\316\331\277\366\355d\277|\246\027\2772\235\275\277rc\214\276|\021+=\0233\317\276\220K>\277\276\307`\277T\245\237\277\030\366-\276\273\255\220\276\221i\235\276!\203\265\277~\337\302\277\212u\356\276\020\354\210<\225\351:?\370\331\027\276\350\036\006\275\306\235\346\276\214\323\225\275\016(\'?\222\262\324\276\320sP\277L]\211\277<\0274\277\313I\222\277\245\3356\277\340\017\006\276=\264\347>dB\252=\251\360*\277\312\216\032\300\247A\010\300$mZ\277\220\256\247?\256\343\257?\034\036V>4\226\016?\310\013)\2772_\205\276\372\305{\277)\026\205\277\177\244\000\300\202\227\030\277GJ6\277q\350B\277\334\370M\277rq<\277\022,\026\277B\350O\277t\247 ?\"\207\236?p\034|\275\247\r6?\230;X?\252\232\032@P\241N@^\376l?\004jU@S\330I@\315\250{@lwr@\224\026\022@u\264\314?5\275\331?>N\306?\303M\275?\207[\307?\236\325\271?\005\320\303?\321\037h?\224\356\376\276\010\372\217?0\261!=\375Co>.S\020\277\010\3427?\006\347\223?$\256\005>@\306\212?\030\332\314?\252\217S?\253\006A\277\220\203-\277\325\343S\277\247\2478?\332\244\210>\200d\"?8\203\213\276\216\016\317\275\037;\262>\264a\205?t\035\353?\026\214\213?\310\014\004>\351\276\246=`M{?H\245l?h\226\312?\364\313\276>=\221\000\277\336!\033?\036\221T?\237\327\364>2t\016?\036\320\225>\000I\206>J\033\305\275\332\033u\276(\235\333\276jX\271\276\357`\217\276\274\002\207\276\336\300\016?h\236q\276\200\037\304\276 \351\037\277P[9\277\\\270S\277!r\"\277\250\022\300\277\275\236\245\277\005;\007\277:ws?\344\320\231>\220\362r=jE\030\277N\262\214\276\304W.\277bp\250\276A\230\305\277 ;\246\277\244\013\244\2774\263\263>\275)\024?\277n\311\276\2208\213\277@)\200\277\216\337\t\277\311\007\014\277\272t#?N\231\252>\002\034\323\277x\331\217\277\004\243\254\277 \030\235\277pP\274\277@3\237>\200\020\215\272\240J\225\277/\003\342\277\260\026\216\277\343\257\266\277!\023r\277\247\207\022?\262\334i?2\306\226\276\\\016+\275\216\303\000\277\216\017\243\277-0Y\277\277\002\025\277\221\207\320\277\304\244*\277\246n\245\276\0008\266;b\027\024?]\275\254?N\331\314?\240h\232?DT#>\204\232\306>\336\310\037\276\352B\035\277\305\n\323\277\214,\210\276WQ\250\277\224\020l\277%\263\213\277\035\303\350\276.\027\335\276\024A@\277\376\003\340\276t\224\273\276p\251-?\370\262\005\276@\314\214\272\005\217d?\332\237z?/\031\207?\021\306\017@^\323\016@_R\253?\350\031\026@:\207\227?\335Sa?vD\253?\003u\363?u6\377?<\314\276?\017\202j?\311\351\375>l\035X\277-\336\212\277\024:(\277\320\253\330=JR\217\277\305\355H\277\010PP\277\016[\247\2778\252?\276\204\310Y?\'\212F?\2572\r?\n\202\211?\330\321\361=a\t\274\275zO\211\276\363D:\277\000\256\265\276\305e?\277X:\220\277\360@\t\300\332\037\342\277T(\370\277\220\341\354\277\206\313\243\276,\026\\?\006\315\361>\271\356\304>\370\203\245>\240\252\362\274\031\244\311\276\232{.\277\n\336\263\276\000\366Y\277\215j\271\277p\377N\277\305\274\034\277\n\256\021\276\247\250\016?!E\222?\021\274C?\276k\310?\212u\302?J\214\321?)_\306?F\360\306?\3728y?P\311\214?\251_\231\277\225\233Q\277\376\360\000\300\200\310|\274\211\324\035\300\275\247;\300\240!\273\277\262\252O\277\225%m\277x\257\324\277\214\363\306\277N\341\342\277\365\'\014\300\211\234\r\300\t\310\260\277\242=\215\276\"\\\221>\306\036\264=\031G\272?\215-\212?\203\225\035?\262J\222\277\356Q\201\277\\V\030\276\016\211\225\276\377\263?\277\024D\360\276\010;\244\277\266r/\277&Q,\276g\3152\277V\217\273\277\252\275\263\277\322\260U\277\204\376\001\276rJ\244\276\001\266)?\236\0373?&6\252?\347i\013@\210\352\263?TCD?@\274\201<\361%\325\276{N\254\276\340\356\024\277\224\233\342>\3468\257?=#\004\277u\242\253\277\251\031\276\277\335\314\271\277\277H\253\277B\312\031\277@}\t\277\205\205\350\276X>\000>m\337\351\275\3558\026\275\3423\010=\371]r\277\222\244\375\276txU?6\275\257? ]\033@\241d\215?\363xJ?\346\353\034\277NJ~\277\222\022\267\277\264\017\311\277\332\260A\300\021\247\216>,\266o\276\362\023\021>\014k\353\2763Z\254\276d\307]\275X\351\231\277\003\003\232\277>0>\277DP\260>\215X\342\276\204\206(\277\t\350\224\276y\330<?TS\021?:\212 \276+\2108\277\350Z\266\277\020\016\267\277\315\007W\277l\301,\277D\354\\>\2279\266?\204T\201>\356F$?\360P\223?\026 \\?\204\256]?S\255D?p3\034?\342\005N?\000+\307?\216u\007@\204\232\347?6\305\373>\216\002Y?,\361\002@g8\350?l\n @z\260\021@A\351\344?\246\274\037@\036\332\310?\201\034\023@\250\245+@\353J\002@\366\237\312?\256\345\257>\277\263W?\311\031\023?\300\215U?\252\320\374?OI\336?\304\034\224?D:l?\314:\014?\254\275[?N\331\313\277\222\255\207\277\226\004\276\277N\310\236\277\366\214\013\300\316k\312\277\300\340\320<hL&\277\'\224\021\300\tF\010\300a\3159\300wo]\300\353f\300\277.F\016\300\032|\345\277\211l\003@\300\345\224?\372\005\241>\374j\007\277\262$\264\277\336U\312\277\336n\377\277\272\312I\300\314\252:\300\342\004=\300!\323\312\277\262t\373\277\243A\275\277\3676\016\277lH\235\277~\312\341\276a\324\017\277\302+\017\2774\2172?=\231H?\016$\252>\0003l;\367\343w=\306s\312>\343\r(?\204\365\222?\204[ ?b\231\203?\262E\232\276\370\251Y\277\241$\007\300\3503\004\300L\010\037\300AV\345\277}V\002\300\312\036\261\277\300J\355\276\"\371\210\277\222\035\026\277\016\3509\276\240h\302\273`\257\230?K\325_\277p\327\213\277\254\263G\276^\245\273\276\242\205\312\277,\337\237\277\270\213\302\277\2210\234\277\001\035\225\277\2534i\277^\254\311\277\206\311\357\277\323\250r\277\221\204.\277f\353\202>\314v\312?D\031\346>\271\246\255>v\002\267?\242\202\302>\373\004\206?P\\\342=\221i\317\276]\335[\277\355\332\313\276P\352M?\372\263\223?\374\335\262?NC\n@\367F\t@\003\304\257\277\\<\213>,\373\326>b\353s\276\207\246+\277\3443;\277\346\365\276\277P\222Y\277\262\027\214\276\370_\231\275\376\363{?<b\013?\331\314\252\276\350\317\345\276\236v4?Q\\\246>?\327\310\276!\257\232>\247\222\001\277\276\232\276\277\346\021\262\277\260J\242\276\013\302\371\276y\210G\277\203f\376?\275\022\337?\0149\213?\022\363\243?\246\177\301>N\270\377>=M\022?\002\010+?\344/\226>\304\035+=\357\201\317\276\020\277\202=j\252\032?\320\224\274\276\025\377C\277(\250\253\277\356eX\277\234\321V>\251\245\313=\233~I?\210\325\014@\272\335[@\037g\370?\326Nd?\203b\260?\010\020X\276g\340\303\275\322\236\000?\261]\231?\345i\210?x\364\201?\315{\200?\023\024\364>:>\302?\016\200`?\310\315\236?0\\\014?*1\230?YD8?\224\331\354>\206`\217?\372b\371>\305\025W?P\212\332=\234\006\271>\360\375$?\251\304\014?f\275\231?\313\017[\276s\344\221?\224tU\276F\303`\277\305\3156\277\366N\264>\217~\357\276\206#>>\236\374b?p\226\254?\320\203\215?\332a\222\277\353h\311\277b\343\333\2770D\332\277\275p\316\277\253d\022\300\300\350\235\277\013\202\242\277\230\034\264\277\220\226\027?\341\334\353?/\323\003@\311\305~?\345{m>\234\3003\275[\337\252\276\222~F\277\376\347C\277\210Xx>XE?\277\0202\004>O\021>>|o\266\276d\261\342\275g%\273>T\225\374\276&\032\273\276\264\017\366\276\376\365\010>\220\013\226\277>\224\200?O\333\242>\002\241,\277<\255\305\276\246\026v\276\006\357,\277Z]\225\277>\005\352\276~\346S?\034M\313?\025\207\276?\200V\211\276\\\305{\276\240\265\225\274\343\3452\277\216N\236\276\243\000\306\277\213a\370\277\026\301\334\277\020\265\374\277\204\344\335\277\257\256\224\277^$\300\277\202\360\315\2770x\022\277\326%\030?T\006a?B\237\215?\272}\203?\327\225\363>\340\022\240?\246\220{?\230\211\305>@\342\t=\037\273\025\277\224\200\236\2770\306\230\276\034\266D\277\250_Y>zg\251>\300,\376><GT?d\312\006>\210\365\250>Z\\v\276H\016\251<\320\206\270>~)\215>\201m\025?\274\372?\277\222r\235\277\230\223\260\277/a\021\277NU\271\276\236Ux>\265\327%\300\022\221$\300\270N\232\276\000\375b<1\241@\277\366\tp\277\320\323\235=\022\004\261\276\307\360X\276X\323\034=\345\362d>\257\260$>\350c\227\274\312V\346\274LX\254\277M0\201\277&\213\331\277;\022\235\277\352\315y\277\\<\222\277\370\003[\276\030\361u?J\2314?\034\014[?`xG\277\317\'\314\2770\306\331\276B\370\272\277\256ff\277j\223p\277\010\325[\2776T\r\2778\006!?G\004?\277|\340\"\276\350T\014\276*-\222>\250\205&\277\256p\212\277\020R\257\277\371t\006\277\374ck\277\375\020>\2778S<\277\033\276\267\277\232\005L\277\367\332\203\277\212\037\345\277\025!\310\277fqH\277\243z\264\276\245\263\006\277\3463f\276\310\031\263>\270\3224\276\354+h\277\014\221\n\276\332&k?\231\336\"?\356\202\211>\202p\352>\271\200\257\276\301\203\305>\330\2146=\375\306\001\277\372\372\341\276\032KC\277\342^6\277\244&g>L\324I\2772\246\177\2776\353\230>\214\010\340\277j\364\r\300u\324\306\277\251\372 \300\r\263\002\300~L+\300\330\326\262\277T\305V\277\t\r\304\276Ej\332?\367\335\245?EH\224?\220\251\014\275\023,\246?L\242\255?\322\032\177?\354\242\270?\272\2342@\315\3517@\234\242\340?\233*,?\307\364\317>\202\307\213?\353\373j?\322\262\030?<\310O?\264\250\346?\257|\232?H\264\342?+N\273?*\340C?\260\224J\276.R\240\277\010\365\216\275\230\262\035\277\224\t\231=:\027$\276\026EW\276\374\331\317\276\035\001 \277]\004\237\277\343w\305\277\020\342\227\277\330~\003\276{o\232\277\240 d\275{\035\354\276\304\2364\277\264a\317\276tR\261\2778M\273\277}\235\223\277\022{\326\277\320\023\021\276\036\232K?\233\002\312?\220ya?\200\030\024\276:a\200?p\017n>\353\307\021>)*\311?\233\253\343?0\320\023@\312}\213?\317\265\302?\264`\250>\310\000\033=\234\327\002?\315sD\277\366\336\265?\3021\004@\266u\204>P\244\\\274\340E\237\272\305\230\241?`\220\356?\260o\355?8\013y>\3424\343\276t!\007\277\204\364\006\276i\006\223>5mQ\277\227\322\016?\371\311\005@\2263\254?\026b\376?\322O\210?8\rS\276\225\313\343\276d\354\206=\235f\033?\2215\252\276\262`.\277\250q\344\276\3269\353>l\033\305?\013\323\231?\200\216\332=\20790?\022\220\223>\244\377\030>\352\260\320\276\000Ak\276\375\323\002?j\372\251?\224\252\200?\333\220_?\232\r\254?\024\307\321>!n\305?r\224m?\300(\003<\\\214\013\277\332\374\337\277\0326\365\2770D\314\277\010\303\347\277\002T\357\277\235\231\243?\364,\'>\330\337l<B[>>\372I\272?h\226N@\330\3570@2\204\014@Zh\036@\316\256\026@J\023\300?&\303\276?\240^\221?\313t\014\277\000\016\t\275\243 !\277\0256!\277Fc\361\276\310\373\312\276\276\223\002?\002\360/\277\256\377\265\277\260\2500>\356\306\221?\317u\033\277A!\023\300C\216\366\277\014E\014\300\200\314\r\300r\270\002\300\337\334)\277A\251\200?\334\024\365?\206\246\231?\257\373_?\277\277\025@5}\010@x2\007@\350Y>?\350\335\324>P\367\200\274\244#}\277\377\220\244\276\017\033\231\276lx\244\275B\344\246\276\250,E\275U\206\355\276\266wR\277\244\272I\277P\362\221\277\261\337\200\277G\310\027\300\255&\225\277T\0254\277S\222A\277\260\220R\275\3430\245\276\3147\037\277\300%\n\276\313\371G?*\241D?<\305\226?<\274\002>\350\037\236\276\032\267\255\276\010\336\035\2771b\276\277\226\274\241\277\354w\230\277\276E\303\277\241t,\300fI\256=\233V\014?\320,\320\275\321\2657?\006\363\310>L\313\003?%>\207>\372G\310\275\200\256\265\276?\261\253?\021 \021@\324Y\261>\031\356.?\310\240\221\275\267\236A?@o\356=\370\223\346>#\344}>w\201\264>\354V\206=d\365V\276\246U\372>t\335\305\275\310/\036?J4\354>\312\033*?\252 T?\260\374S?\006y\303>lBM?\200\243Y=gr\237\277\374\246j\277J\036\242\277\267\303\307\277\004\273\345\276\236dT\277[1\377\277\272t\226\277\030\347v\276=\266\222\277\340\220\255\275xu\022\275\031\332\027\277\343\240i\276&\353^>\032\232\010?\310e\343=\221\2418\277\022p\243\277(\364=\277\002\246U\276=s)>v\224\241?\2237\220?\000\347P\276\003\325\200?\321|\215?\325\340_?\370\005\261?$\247\327?2\n\256?Y-,@\350\316W@\324z\024@\370t\037>\255\316\320\276\\\327\217\277\277\025\357\276\230\027\344\276\367\251\201\276y\232@\277\231\216\274\277\024L\242\277\024#\233>>~\235?R\344\226?\335\324\257?|/P?\001\035\260?H\342[>\344VP?\217q`?\230\240\251\276\016\t!>\034\332\307>@\235<\277\344\014V\277\327\243\223\277c\014}\277~\241\371\2764\224\247=\343HC?\3170\210?/k\211?U\340\037?r\357\313\277\260x\333=\353\331\250\276R\337\020\277Y-\336>as\220?\234\003\000@HUa>F\n<?\350t\217\276\374\362&\277\351W\255\277\304\317\010\277\334\301\203\276\210\233\355>\n\247W?\260\361\006?h\340U?\366\234\333?\211$\305?\250\275a?\300\215\027\275\263\273 \277\354{0\277\222y\314\276\027\005\227\277\002I\347\276\217\354\256>\010\007\013?\006\322\237\277hEU\277\273\327\215\276{\005t\277\274{\017\277\213\334\213\277\366l\241\277\330\230D\276K}0?e0&?\342\016\006>Q2r?\023\360\037?\255.2?*\340^?\313\315D\277\354\222\017>\361\010!?\\\034\200?Y\332[>\216\301\326\276K\310\231\276<\370\030\277\262\301\226\277l\205\017\276\340\271\270\276\222\225\004\276\233\264\'?\177\220\317?(\004\006@H\252\027@}\2233@@I:@z}H@87\036@\345O\334?\352X\204?,\277\216?\303\017\325?\006\372\302?T\270:?``\231<y\212\342\276\313\210\271\277\237\236\007\277a:\271\2775\216\231\277\214\305p>OA\203\2770l\230\277`\267\351\275-\027\003?\030y!\277\317\236\031?\331\377\264? \355\252?\224\227\026@\362\220$@49\335?3 8@\2772\007@\253\257\326?Vo\002@+\025\r@@S\373?\"\031L?\336\332\215?_X\371\276U\261p?(\004\210?\253\276\350>`\346\344>h&\343>t[m>\324\334<\277\334\347\365>\224\002\177?\030\301\321\275sa\304=\317\342g\277\3656,\277\265\367\245\276XIa>H\356\233\274\036\213\037\276\214%\243\277Z\022\023\300\202\317\235\277\332\370\364\277\222\031 \300\305\352-\300\355\310O\277~\344\226\277\353\303\025?\320\'\336?\214\231\203?$\242\276>0\216C?\202\243z?jBz?p.\212?~\357\310?\354\013\325?\363\256\230?\003\"h?5\321\317>\311\350\265?X\014\n@\270\013\t@\344=\342?q\261\330?!\352\212?\200\336\355\274\227\222y\277\212\216\\\277\257?f\2764\201J\276\200\353\360:8\262\205\277-\212U\277\032\307\201\277\202i\n\277\230_\022\275B\013Q\2774\021?\277t|\025?<E\225?\250y\365?\240Zl=\233C\233\277\356\271\306\276v@\201\275t\213S?\030\231)?\302*\203>\032`\215?{\332\241?\272\203\375?\267\246\234?\341\204\307\276\374\241\216\277\255\302f\277\364gL\277&\303\256\277~]\333\277oD\033\277\016\252\002\277X\346\303\277\332y\214\277\312\030\002\300\352\303\223\277\034\233b\277H\004;>*\366@?\010\224\227?4\356\351>\322\340#\276\364bA\277\"\265\306\276m7\200\277\370\365\r\276\'\003\033?\300+\206=\217?\031\300\332iL\300Uk\222\277\024\260J\277\266p\356\277\210t\320\277\240]\'\276v\331\024\2760.\331\275xa\250\274\217`\310\276\342\323\212\277\370\215\240\277Pv\330\276\256\341\341\276D\016\357\2763\005\227\276/\345x?;\007\337?\350;\207?<\235<?\252C(?\014.N?\364\277e\2761\336v?\267\262_?\242\030\232?\204\021\222?m\354r?\360\372\247?a\321\005?M/$?P\345\275>p\244r?\016\r\307?\367\'\242?\234N#?z\365\215?\315\2356?\232\032\023>\203\250\025\277\274\333\271\2764\320\255>6\366x\277v\366\r\300\332N\260\277\204~\033\276\001\326\355\276\224\0059\275\373\017\001\277Bl\317\276\021\344\307\277\346\207\345\277\240\366\243\277X\025\202\276\322J\371\276w\226\314\277U\310\322\277\201\303\266\277\250\177\235\277\253\253l\277\3121\277\276\366>\243\276\240\232\361\275]\255v\277\311$?\277\310\026\227\277\300\014E<\314\0204?0\t\023> \021\270\277F-\374\277\'\324\017\276\300\354\025\277\033\332\362\277\215^\242\277I\021\213\277\246\n\275\277C\335#\300#\346\354\277\347\264\r\300\273\203\003\300\224\363=\300h.O\300\354\3359\300CSU\300\357\"F\300S\327]\300\324\215)\300a\2605\300\241\301\307\277\240*_\2757i\n>\016\216\227=}\247P\277\200\000\007\300\266\337\231\276r\367y\277P\345y\277\t\247*\277\356\235]\276\245\027:\277\205\302\261\277\233\344\232\277>c\201\276\322L\031\277,\245C\277\n\222f\277\340\350h\276;?y\277\227o\357\276\216\201\224\276\241\240Y\277\236\002y\277\330\245\242\277\230*T\277\030\374\270?\310\332x\277D_\336\277\310\340\211\276\270\023U\277\274A\017\300\275\356\005\300\340]\264\277\252t\321\277r/ \277X\026v\277b\r\217\277\215\370\227\277\266\340\355\2778\037*\277\266\355\237\277\374\221\010\277\316\207\030?\254^\t>\034\352\373=j\264\373\276H\331^>\311\315\020>\221p\004?\tL\035?\205Bt?\3603\254>\340\376\'?\223bH;\324\000\217\277\212\247\311\276h\t\331\276\263\214;\277%\376\200\277\325_t\277\254,4>\010\331\320>\310\323\000?R:h?\017\264k?\"j\237?tS\237?\334,\276?#\212\273?\367\206\021?\204\342\313=B\233*\276\021fa\277\220\203\033\2754\317\215\277\300D\263\277\331g\n\300h\0236=\2105X?=\350\270?\"}1@\210\371;@^\232\021@xc\271?\024\342\251?\216M\n?2\261\020@/W\005@\377\314\316?i\360N?\r\242K?\210\360\333>\326}:\277b\262\326\276Y\3304\276\030\317\321<\305c\000\277`\310\351\275+E\341>\316\n\313?0\345\216?U\221A\277\362\025\233\277\376uA\277@\204\237>v\031]\277\004\232\010\276\366\353\261\276\017\362\326>\270\253x\275c,\250?<\037\374?\307\303.@\370\246/@\257\324\023@n\341J?V*~>\236\346g>8\261<?L\335\266?l7\376\276)7\215\277lnK\277\206*\331>V?R\277\265X\220?\330\327\373=\330F2\275\224\352f\276\364\371\307=\263\203\216\277\331{g\277\204\315\352\276\002\207\n\300\262\246\"\300\366bg\300\337\020_\300\303\367:\300(f\302\277\216\260j\277\324\021\277>\364\"\002\277\336E<\276\017\341l\277\344\"\250\277\n]\020\300\273X\361\277\374\003\361\277\300U \300=\265b?ZF,?\037\233\271>\200\034\334\273j\236O>\347\341\001\2774*\021\277\3218\225\277N.\266>\264\325\301?\0246\317?\352\356q@\337!\026@\303\346w?`\2013=\264\204\262>2u\367\276\256\350S\276[\"\220\277\212~\310\277\352Ix\277\024\021\306\277\226\345\316\277\350W\373\276\013\271\204?\302\333\224?\223\252Z?\031\336%?\200$\210?\277\275\342>e\226\315\276d\210\305\276\336\340}>\357\321\210?r&\276?4M\223?\254<3?\311\372\222>\016S\n\277V\274-\277dK\005\276\001\023;?\000\275\177?In\230?\036\001\267?\200\2256>7\'\226\277\350\333\250=N\226\314\276\332\277\'\277\017\355\n\277~:=\276#!\021\276\3516p?\261\342)?2\025E?\256\215i?\220\252\223=\245\216\362\276\340\021\177\275\\\325s\276\333/\246\277\224\234\333\277\014\243\363\277?\364\250\277\365\021\206\277\020Q\002\277$e~\277~\373\352>\362\251<?\202\002H>B\3602?\324~\325\276\211\031J\276`y\273\273\301*\030\277\2301\017=y\337C?\362\024\217?\316\312\214>\332\241\021\277r>j\277P1\301>\332)\236\276^\0317\2770 \374=\256D\306?;\021 ?\340r\307\275,\227\276>\230?\354\276\203\204\365\276(\021\316\277\223\354,\277\370\202\255\277\200.\242=\336B&\277|\324\\>B1\344\276~b\247?\022{\261>3p\227>S\200\260?\300:\006\275\031;d\276n\245\n?@\002\227\274\204\262\236>\333\257V?Z\252^?\270\344F>L\030??\356\001_?\226JM?\240\265\337=\352\237\306\276\202C~>\022w\307\276_\000\253\277\013\031\242\277\304}\235\277\023\326\213\277L\352\252\276\206\244R\276qe\240\277\252\332\313\276\3034\233?\007\216\032@\006\2219@\214AX@\245!\"@l\314\244?\305%\"?w\001)?6\211G?\255\005 ?\032\263\277\276\006Z\014>\246\276Y?\256\242V>\205\0171?p\017\246\276r\3438\277\000<\207;S9V>\214\335\312?@\3460\275x9\236>\366\353\342>\212\316\235\276\023\273\307\277\351y\016\300\272\376M\277\010!\324\277\322\033O\277n\244Z\276\324y\323?\231\034\203?<&0?\207\371\032\277\"\230G\276\220\235\366=\352\013H\277k\270\325\277\300;>\300\244\233L\277\353-N\277\010\227\215\276\353}\r\300dI\354\277\373\217\232\277j}\261\277\310\027\202\277\024\316\002\2761]g\277\210i\233\276\213)\274>\204\2542\277\211\214\\\277H/5>\266\376\326\2760\216\376=v\327r?\302H\242?w\251\202?\r\311\327?=x\030@\314\327\373>\226\343\014?ka\224\276\231\034\256\277\242A+\300x\274\336\277\302\002\331\277\355\302\263\277\2177\005\300\256\005^\300\035\327\017\300\022U\265\277\220\246\014\300s\365\'\300\334\246\002\300\022U\251\277&%\366\277&\257\336\277\224\330\030\300\010:\035\300\246\025\221\277\023IY\277\"\372\226>\346\307\363>\t\217K?t@\377??m\304?\341U\225?&\320\214\276\213s5\277\230\000\375\276R\014\311>\214\272\244=Z\2769\277\243\253\251\276\276\2300>&>J>\252\217\016\2773a\317\276\256\306D\277\"\250\324>\332\000~\276\005\005\307\275\225\t:\277\021\372\256\276\273\243\221\277\000\344\350\272\3700m>l\277\301>\343\037Y\277@\222\356\274\247\330\005\277\354\031\223\277I\274\363=4\025\333=\303\252\t?\224&\206?t\253\254?t\254\356?\017\r\212?\360m\310?&Q\265?\3268\350?1v\005@\n\201\036@8k\004@\031\036\262?\006\300c?\300\256\342?\334\323\241?y\':?\2729\367\276\210\271\034=k\353L\277\373/\271\276jm\035?\250e,=\270[=\275T\372\212=\364_\221\276~2\266>\177\020\365?\014@\313?k\034\353?\340\246Z>\314\010\263\276lI>\277\305\2168?{^K\277\310\336\233\277\274\277\252\277\352\354\247\277\307\231\204\277\356\324\205>5\3576?\001N\256?\356!\203?\232\260:?\320\367\034?\366=>?\022n\213?\021\327\344\276x\\\327>xu\276\276\344\020\336\276`K\033\274n0\324\276.6\333\275cT.\27627\313\277\003\204\200\277\362\246\216\276\234\035Y?\260\333|=\202xC?\226\375`?\313\355y?z\313\037?&\216\226?\260\361\274?/\343s?`\217{>+06\277E\016\266\277\203w\257\277\315\231/\277\224N+\276\000]\301:\377\003\210\276{Av\277\247\361\213\276\365=\231\277i)5\300\303}\013\300\036?\365\277\340Q\241=T\005\267=\325\336\224\277>w}\277\241W\362\276m\304\252\277\3265\373\277\250\244\214\277\226L\277\277\246\361\262\277\342\024\307\277\272)\n\300f\004\255\277\030\230\032\277it\240\276\242\203\\\277\260\222;\276Q\264 \277\344o@>\262\034\353>Tb\330?\270@\355?\240]\031@\377\256\355?f\343\010@\217K\303?\004%\201?n\276\244?\306\327\263?\236\275f?\226\327\177?\020\235\321?\3532\336?\271\374\231?\226\353\031?t\362\260=}\013\301>6\332[\277\264$\330\277\247\371\271\277\326k\027\277\006\002p>\211\253\242?6\242\252?\335\266\r?\003\321Z>@v\212\277t:\275\276\344&\277\276`8.\277@4\226>\032\271#\277q\365\371\276\370\251\227\275\217!8?\364Ld?\360\013M\276\240\370\220=N\265\017\277\366\361\212?\2245:?\236\tB?\344\033(?\256)\315\276\024\035t?^\346\006?N\246\200?\366\343\203\276\300\277\225\276x\002\240\275\016\302\036\275qG\225>q\230\212?\250\311z?\222A\322?\"&\244?Bi\020?\210\024\366>\032\215%>\222Q\026?>\003*?\313\344[?\023\357\370?vF\236?\256\221\315>\342\'\234=TMS?O\021\257?hv\340?\370\222\302?\2367\235>\336p\204=\000yi\276E\344R\277\247$\256\276\327\360R\276\200\367z\275\332\212N>\346q\224\276\356\313J\276\300?3<\3356Q\277\205\333\020?\322\027\r>I\030\214>\324\326K?\240\177D?\350`\016\276\302\252\315>\317\035\270\277\036\210\220?\250\251\216?\370\350\333? \203\252=\346\003\\=l\252&\276i\332(>\241\377\000?\333 \030?\010\363\005=\300\301\007\277\320\346\242?\200\036\237>\231Cu\277\000\2707:@\356\361\276fN\010>f\362p?\200R\210=\366xt\277\2048\305\277\027\372\366\277\371\302\266\277\247\322\n\300Q\234\225?\305=\205?@\350\024?\236vp?0:\356\275x\331T\276\3471[\277Z\223\332\277\n\322\277\277\340!k>\342\034\357?\265\263\266?\370e\324?)\266\373?\240\225N=\254\2449?5\360\005?\t37>g\332v?\037\034\243?\360\344\246?@\377\022?{\027\315>rUO?\233\272u>\350J\004?\006\343O>0\235\211?\206\361\273>\234\367\026?J\004\261?\252Y\341?\371\261\347?\306\314\212?d\014\335\276~@\033\276B\355\006?\200\370\021\273\240zD\277\022(\212\277\210#\313\277\022\020[\277~\354\270>Tz@\276\010E~=$\360P\277\337\336\027\277\360\'\265\277S\1779\275:.i\277z\312\204>\244\204\333>^\334\324>\336\265\207\277\200}l\276I|j\277`\210\007\276\200\275\\?z\253\303?\275S%?\375\312\320>\377\337\001>\315$B\277@\360I\274\207xl\277\010\322d>\342n\234\275\224Fj\276\204\331\256?\026\023N?*\337\300?\307\001Q?52\250?\'X\213?\007\212J?\210\367\204?\304\234\023@\340E\270?2\245\n?\220\245P\275\345LD\277K\372J?\026\031\204>y\316\n?_a\177?\340\\\372<\256C\342\276`;N\275\036$\205\276\037\332\225?\332\360*?\234\244i?\010\321\375=>\253\316\276\271\033O\277J\302\327\277\316\016\272\277*f\324\2771u\261\277\366]\r\300\260X\326\277WA\217\277t\247B\277\334pf\276G\352\373>@\\v>\344\310Q\276\207p\323\275`]:?\266E\000>\357/\246\275{\242O\277\305\263\004\277\371a\351>\342f\016\276\377\002\307\276\004\3068\277\300\212\223\275\360{\340\277\340a\253=\023\366\\\274\013mW\277W\337\330\277W21\277\373\303\037\3005\203\377\277\325\346I\300V\253\034\300\343\370\022\300\270\341E\300L\202\311\277\274\226\005?\002\2412>\265\r[\277\022\234\302\277\016\315\276\277!_\002\300\231\322\336\277\351\223\274\277\027\006\263\277\222\013\363\277\000\222x\275\322\272\342\275\265\257w>,\274l\277\370\331*\276\344\264\271\276\361D\260\277\314KR\277\014\340Z\276\275\013)\277\201>\223\276%\344\">LO\030\277\037\363\004\277o[#\277W\277\337\277\343\252\016\277L\265f\276\325\366\256>\nE\010\277Z0\177\276\306&\317\276\032\366\030\277\205\323?\277\202@\362\276,\244\351=Zn7\277\035b@?lCU>\257\320\032\276\205\343\335>\344\312\235?\275\302\326?\"\327\270?L\006\342?/$\"@rx\004@\303~\035@\"\343\006@z\342%@\2371\210@\236\242?@V\025_?\200)\304\275\024\036\212\276Y\3173\277\2224\210\277\314\2733>F\367\207>?\355\020\276\262\003\027=\343\307\343>\014}L?2\270\203\276\311\\^\277la\325\276\020NZ=\017\203F?\321G\016?~f\276?\200\244\364<\236\370,\275\000\361`;\001\036~\277\262PW\277\215~\270\277\347/\224\277\350\033H\277\270\324\236\277\014w\013\276\335\343\223>\360}4\275\t\323e\277\347 \216\277\216\365\373\276\014\276\210\277y\332\237\277\210\211\033\276\317\327\315>\n\215\204\277S\317\177\277H\'P\277\210\205\212\277\262\222\210\277\220\002R\277C\"\271\276\304\243\224=N\222\321\275\272\2709\277\026\201\022\277X\232\300\276\266@\030\277\240\004-?\004\203W\276/\222P\277\222\262\037\277\360\'\320\27538u?`\305\360\275\241Y\314>j\024\220=\341\343O?\r)\035?\2051%?*\323\216\277]\266o\277@c\000\277\373M4?G[\204?\227&\n?\020^\254\274\220\240\270>\030\216\362>\355\367L?rt\250?\352\366)@(\271-@\254\351\274?\255\010\301?0\202\273> \020,?\303\234\224?J\253\267\276\3367\003\275\003\2111?\030\310\266>\376\361P?]]\317>\264\370\311\275Z\226\270\276\035\266\264>\207\202\250>\034\210c?~F(@]M\005@8\205\367?\220\r\331?\376\243Z\277\263\331B\277\240\201K\275\352\364\247<\354\322\031\276\377\237\277=.)\235\277\030\246.\277\020\336\377\277\274z\020\300\005\200=\277\364>N\276L\366\006\300\356\344\321\277I!\265\277\200}\032\277\250w\006\277\241q\021\277\257\304\000\277\"\233i\277\246\223\317\277\017\355\331\277X\200\022\300\022!\306\277\337\354\373\277\2346\373\276q\243\276\277\324\035\304\276\374C#\2760\222\271\276\307\256\200\277\234\356\313>\032\307J?\"\373\242?\365\227\247\276l\341\311\277\264u\205\277\214\302\235\276\000v\225\276\320v\230?\\Yh\276=2>\277\340`v\277\033\306\202\277\000w#\273=I\341>\000\236\355;\314X\030<\020\310\001\277X\t\177\277\250\373>\277\312\024\375\277\323I\224\277-\226\367\276\205\036\230\276\306\254l>\220\r\374\274\315\022\232\277\331\350&\277\351=\340\276\214^\211\276\214\315V\276}\313\203\277\004\270\311\277~\241\373\277\272r\254\277\010\205\214\277\001e\241\277\206\n5\277ri?\277\003\177\331\277\211\320\265\277\201\'\255\277z;\324\277\342\300 \277\304\026Y\277\037I\345\277\360\353\342\277\0007\r\300\355M\013\300~\t\267\277\357B\342\277\036\177\n?rM\226?B\236\220?\326s\332?Vn;@\021\257N@a\372X@-\373B@\"7)@\334\234\334?\020\253\272?\300hp?\276\204H?\272\313\007?$0q?4\033\373?\034\322\365?{\376\233?\035\310\241?\034\001\321?P \365?\200\3321@\254\234\307?\214\256#?\\\345c\277\001%/\300\250\266\255\277\214\310\370\276\264\245\326\277\006\"y\277!\020\033\300&\200#\300\214d\315\277\027D\014\277\010\276#>L\207\304\276u\304\232\276~C\035\277\356\234\276\277\003>\377\277\252\304\r\2772\304&\276\352\214K\277\374\263\313\276\355\317\237>\t@a?\313 &?\322\373\256?\336\357\224>\266\225\237?\326\267\002@U\233+@=\355\003@:\013\031@\302\000\213?P\225\014@Lk\366>\362\027\346?\211\206\"@\211\207 @P\305j>\260\224\325<\270>\322?\341\033\270?\313\275s?\365\036\261?\210\004H?0\354+\275\345\353\001?\262,l?\200\t1\275\332\316\031\277\210IC=\345\016 ?7\264\206> \346\001?\260\"\303=\207-!>\306\324\265>\340\352\007\277\000\370^\276\320+]>N\252\244?2\275\344>\246I=?/\023\230?3\272\316?A\023\223?\245\343M?\213\350\233>>\261\255>\252`a?o(I\2772;o\276\277~\307\276\356\206\217\277\262YC<4\337M?Px2\276d\215\242>O_7?\314\250\264?|\375\231>\\\3321=n\274\250\277@\213\314\275\313\206v\276\262t\022\277z\254\020\277\2011\212\277\356\256\351\276\220\271\245\277\2669\205\276.\371\255=\231\252V\277\3229{\277\022I\253>\320\270m\276\301\274\257\275\320\360:\277\374\373\200?\344\212\235>\241\351\205>uy\212?\220\207\323?\034\351\324?\363~\003@\021B1@7\314\021@\210\2744@Q$%@W\273\350?\224\227\037@\230\332J?,\314\025>nN\001>\027\243\200>D\270\364\276w&\310>\014\334\252?B\320\223?\245\267)?\256\366\222?bF\002?,\253}<\350G\220?\370\344\251\277\371\3712\277\270\351\002\277\244\243\265\276{\204\355>\246\334\234\2772V\203\277\032\252\257\277\n\237\266\277\344\017\027\277\005#\326\277(\353+\276\233Jt>\372d\205\276\256h\336>\315\343\034\277\204th\277\240\0003\277\330m\234\277R\306\337\276\367\373\245>\347\365\201?\340g\215?\304\320+>\2468k?Z\235;\277\224b\332\277pr\250\2758\204\006>W\225\254\276\006\356\032\276\356\326\r\277\006%\213?wM\205?\320p\343?2\256U?\250\005\262?}\244e?\243\361.@\356\215\307?~\030#?\367\341N?b\206\325\276\324\337l>\336\327\224>\341\030\273>f\206\031>\355\304\014?\374?\365\275\010\222\321\274\026\241>>\252\243\\?wu\277?\320\361s?\306w7\277P\253\341=<3-\276\007\024Q>\367\2747?\254\377\371?$\351\306>\000Y\014=\353\003\352\274}\261W?\230R\341>\312:C?\026\275\223?(\246\'@S\237J@\250h\034@\343z\322\2774y(\300\202\362.\300\227\372\031\3006}\037\300g\001\n\300\335B3\300\200\306\316\277\247\361\234\277\230\300\022\277\230w\017\277\2266\242\276\201\265\203\276\274z\023\277\374y\222\277\t\337c\277\272o\254\276`\304Q\276\306@5\277xv\230\277\304\242\236\277|\360\n\277\300!\251; \211\264\276\021Z8?\260\247\221\275\312\377\230>q\357\257>D\014Y?\210N\263?\300N3?0*$\275\340\207\223\276\236\246\005\277\000\326\236\277a$\n\300\235>\322\277|\311*\3007\272\001\300\276\223\263\277\030\222\275\277\000w\001\300\220\0079\276.\035\240\276`\022R<8b\326\275\006\344\320\275\200@\327;8\302\207\277\334h\367>\310\247:=\003\267\216\276\350\213\032\277\030\276\255\275\"!\264\276\240\252d\275J\344\206\277\257\307\200\277Kz\252\2770$-\277\274\330\325\276\364s\224\277\226\313\t\3003x\035\300\033I\337\277\361\016-\300J\\\325\277\321\315\247\277\217\355\304\277\330\244N\276@\357\203>\206Z\003?\302N\233>lU\'>\236\316\260\276\341\214)\276\"e\255\276\370\274\215\277\340\242\367\277\340\375{\275\025\376\336\276\202\017\241\277\335I\202\277(+\017\277\212x\243\277\034:\022\277\246P\230\276 .\227>\036H\315>\030c1\275\244\223\311\275N\257\344=\262U\262>\220\375{?\217\256\324>\200+\317\274\010\312.?\366\"A?\326/\373\276\210\373-\276\336[\342\276|\366\306\276\325\"\244\277\340\271\325\277\003:\304\277\200p}\274|2F=\335\006\264\276\034\263Q\275u\277`\276\204P\337\275\367:+\277\357\357%?`+\212<\010,\212\2765PG?\030|\321>\206+&?\272*T?:\345\335?1\254\252=x\273\037\277\026\007\032\277\374\031\337\277:\262\022\300\334\363\237\277D\204\357\277`\274Y\277\224\313\024\277\246\230\204\276\000\301\244\272WiD\277\320\235\335\277<\003\214\2772\200\204\277\256\210\233\276\352\356\354>\031)8?F\225W?\002_\232?\350\t\032?\000(Q\272\377\317\r?\362Z\343>;\253\235\277\230\234\035\300\340\031\007\300\214\214\261\277\375\203\004\300\377s\277\277\302CA\277\034\307}\277\257\354\323\276o\252\240\276co+\277\3243\222\275\370\013\304>\022\2279?\365\251B\277\363\362\256\276\006\331\036?\312\213\223?g\356\004@@\220\242?^\307\005@\215\376\022@P!\363?\230A$@A\306u>Y\"\017?\037\263\243?\310\320s?\3421\312?8\024\271?\210o\236?r\331\003\277k\333\300\277@\343\256<\0010\350\276O\322\275\276\026/\233\276\242h\356\276\242)\002\300\226\225\364\277\3260\036\300$\t\377\277\273\334\254\277\"\354\205\277Q\316m\277h!J\276\304\030\014?\246\205\323?\212.\323\277,K\312\277\360\371\257\275\272E\276\277-\2530\300\364|\344\277\'\r\313\277x\243m\277J\315\255\277\026>g\277T\215\240\276\230\257\304\275\347[8\277\006\250\262\2777\336\031\277KH\205\277\273U;\277\206\333\252\277\226\205\353\276\340\340G\277\350\005\032\300\332\236\357\277\t\246\006\300lJ/\300\026\032&\277R\217)\277$\031w>\216T\000\277\277^\363\276`T2\274:\274\231\276HJ?\276X\330v\276f\325=\277.\317\273\2760\233\033\277\342\220\223\277>\013\316\277\277{\212\277\204\002\020>d\376?>\277^\253\276m;\264\277\025\261\247\277\227\365?\277\224b\001\276\277F\035?\340:\261>\360|\254>L\212\200>\020\312\331\276\300\323\023>T\016;=\364D\216=\333\032G>\227\'\222=\002\\F?\234\210.>!nL\277i\245\204\277\3235\223\277O\352\236\277\205\204\213\277\241K\177\277\337\253|\277\000\023I\277\003\213\217\276B\232T\277\377\207\222\277\204\312\036\276\031#\265=E#\376>z\005\267>D\206\352\275qat\277 \367\r\276\235\227g\277\\\302\201>\032\235\304>\340Hm\2753\356\250\276n[\266>\"\020\004>\226\363t>\200\251\345=\032\230[?\255]\243?pC\036\276\300\222\n\273zVI\275\376[\300\276\\\212\231>\r\322~\277A\247\231\277\210\304\254\275/h\262\277\272^\030>$\233=>\265|\020>\320\366\266?\354B\312?\260X\275?R\370\271?\366\025\361?|\356\344?~\266\272?\327V}?fW\027@\300PU@\231\242\202@\244\262a@R\"?@P\240\335?[<\014@\211\272\324?IJ\342?\271\320-@.\312\366?\246\'\024@\177r\014@\332-s>\350\317\032?lc\257>\262qe?\033\321\226?E\362\251?\006\351{?\365v6?h\352\231?f\216\262?)h\002@\301:^?\034\346\257?\270\005^?\000\300\266\275\027\377\245\277d\017\341\276\n\322\222\277\003a\207\277\006\036\251\276(\002v>$\273D?\212?\364>\006\330m?\267\273\220?\300\234\263>\211Qs\277\350\010b\276[87\276\360\375\222\277\000\020\225;K\360\036? \263D?\177T-?\320G\216\2770\311S\275\377\205[\276\250\211\245>\214\241\022?\016\3742>>\014\345\276\352\342\220\277\377\351\003\277D\337\363\277r\231>\277E\333\315\277j\027\224\277X\365O\277\324\005k\276A\265\230\2759\034\265?\254\016\006@Z\366\222?nS\265?}\263\223?h:p\276\004\312f>\354\340\013\275\226YH\277cj\207\277 \273\253=Z\333\225\277<\355\224\277\333\317x\277\000\254\366\274\327\177S\277N*\303>\365F\220\277\262\373\320\277r\355\002\277\247\024R?F\343\232?\325[\204=[\035\016\277\020K\255\277&\352\200\277(K\333\276\207\367\023\277\270\311\201?hX\204? n\305>(\345\247>\334|6?\200\215\233\274}\000+\277$\2026>t\000\245\275\013\2746\277\2447\005\277\257\r\263>\010\206\221?\250\t*?lT0>\221*b?lWP?$?\277?\332\021\274?\252\213\024?X\317\274>\032\351Z\276\372;\034>T\001\224\275BC\277\276\260\016\377\276\004\037Y\276\355\000\254>\n/U?`\036;\276n~\006?i8\213?\016\261\t?\014rr?}\2376?P\363l?&\034\035?\331\370\212?\347\377Y?0U\347>\035\247\226?\334\215 >\225\216\021?hm\'?\360\033?\277 \316<\277h\201\251>\"\304\243?H\217\233\276V\206\004\277 d\016\277\310\207r\277\033YC\277\272>a\277\214\022.\276\033^\365\276\366\274\254\277\324\316\202\277ZW\254\277\262\267*\300\250@\243\277\232W\323\277f\t7\300E\221\000\3004\343\260\276\347\267g\276q\214\320\274\312\004{>\2501\321\275\025\006\221\277D\021;\277\330\274\\\277V\"\216\277\230E\214\277\324\312\177\277\030\254\332\277\022\345y\277\223\003\001\300\273\211\263\277~\365\373\276\2256k\277^\315\321>\365\300\301\276\252\033Q\277\356-?\277(\004\263>\025\341\220\276\000\257\332<\365\246\213>\336\350\231\276\002\334\336\276\341f\216\277\341\246{\277IY\233\277\227\327\\\277\3046\221\276\312\353\335\275\311\t\n\277\355\022\247\277B\000\034\300\n\213\266\2776\356\260\277\222\246\306\277`\207\304\276t\300%\277\360&\315\277\270\231\325\277\005}:\300\216\260x\300\356\270\351\277\302\370~\277\232/%\277\321\034\022?.\211N?\314\223\030\277\024R\360\276\\0\315\277\030\323\230\276\316>\341>-6\227?tJ??4\2541?\200\367\267>\247\307\362>\241\006\302>\246\227B? \207\352\274\023\326\361>\036\nZ\277Ph\030\277\217\360%?\022\025\212>\360\236\306>\240\312\310\274\2222\333=\030.\226\276\246\224\260>\346\314K\277@\216\032\277\213F\245\276u\332\277>\322\335O?\260\302\345?\n\305r?\203/\003\277\205\016\301\277\360\233\220\275\355\3573\277\234\177\376\275\246T\005\277\240\336\237<N\222*\277\210\001L>[\222\023?#\205\305>W\262\016?\375\210\261?\302%\255?\324\203\350>\3114\247?\3316y?R\333\245?\323H\361\275\'\341\344\276\222\312!\277&y\251\277\265\365\212\277\333%\237\277,\365\006\277\370\201\242\275\337\214\004\2760;\361=\263\306\246\276^6\225?h91>p\234\036?\026C\271>(\324\316?\336\237\210?\013\200\203?\202/\312?\331.\376?j5\260?\357\370\334?\250f\020>\021h\346=\356\243\217?p\270\221>d\211\230>\234\210)\277/7\341\276\302\202\205\277&0\204\277\365v\224\277\216Y\311\276\270w\230\277\177XJ\277\026(\000?\337\006\r\300X\037R\277\244\022\000\300&\210\\\300-\307X\300\367<P\300r\235\346\277W\213>\277xA\245\2758\371\235=\317\325\010?\244 